d0
27
f3
9c
08
5b
1c
11
11
74
f7
18
e4
09
f9
37
f0
eb
a6
f9
27
3f
42
23
ca
94
f4
13
dd
c1
c8
1d
ee
bd
08
58
a9
11
0e
a3
2d
11
dc
d7
15
69
18
dc
0e
81
f0
25
35
de
dc
63
ea
30
f0
f7
d3
a0
ff
09
55
04
b6
ca
ce
bb
f7
40
0c
10
f5
0f
e1
d1
bc
c1
b1
f6
b5
3c
2f
c4
24
d7
b1
04
01
c5
8b
14
04
b2
ac
d3
12
d6
33
c2
b6
9f
1b
c0
61
e0
2c
e5
4d
46
0c
bf
a8
cc
c2
41
db
05
0f
c7
10
36
35
fa
f5
2a
