fa
06
08
ff
09
03
fd
f8
fd
01
fe
02
00
00
04
08
ff
07
02
02
05
fe
08
fe
fe
03
07
fd
06
05
06
ff
ff
07
08
ff
fc
fd
fa
fe
fe
fd
06
ff
fb
02
0b
ff
ff
03
fe
07
03
fe
ff
04
05
06
fd
02
04
04
09
fd
fb
08
04
09
01
fb
ff
00
ff
fd
09
01
00
08
05
02
00
07
fa
02
01
fc
fd
f9
fe
09
fa
fb
06
ff
07
00
00
03
00
ff
fd
05
fa
01
07
05
fa
fb
fe
01
f8
f6
f8
ff
05
06
fd
06
fa
03
00
fe
07
06
fb
05
09
03
04
07
fd
05
00
fd
08
f7
05
fa
fd
fd
fe
07
00
03
0a
02
fe
07
02
fe
04
06
02
01
fc
08
fe
fd
05
f9
fe
01
04
f9
01
02
07
01
03
ff
08
ff
01
f6
fd
08
05
09
02
06
fa
03
fd
fe
05
fe
01
02
fa
06
0a
0a
f8
03
02
06
fa
fd
ff
ff
f5
05
05
03
f9
fe
fc
fb
fc
fb
02
fb
00
fc
ff
fa
0a
fb
fc
07
02
ff
ff
02
ff
02
00
03
09
07
fe
fb
00
08
02
03
00
fd
05
fb
ff
09
fc
04
fc
f9
05
05
00
fd
fa
fb
ff
04
fd
fb
02
fb
02
fc
ff
f7
07
03
04
fb
fe
08
02
f9
06
05
0c
fc
fe
fb
00
fb
04
ff
02
09
fa
03
05
fb
01
05
08
07
fa
06
fd
fd
04
fc
fd
01
06
00
ff
ff
fd
fe
01
00
02
08
fa
01
04
00
f9
07
ff
06
00
fc
08
03
03
fc
01
09
fc
07
fb
04
f8
ff
fe
fb
fe
06
fd
00
fb
fb
fd
00
fd
ff
fb
fa
04
01
ff
ff
07
fb
0e
fb
fa
01
ff
02
fd
02
08
03
fe
08
fa
05
06
fb
05
f9
00
01
fd
fb
0a
fb
fc
00
fa
00
03
fe
05
fe
02
fe
fd
09
01
08
04
f8
06
01
fe
fb
ff
05
06
01
00
02
04
fa
ff
01
fe
05
02
05
fd
03
00
fe
fb
fc
02
f9
fc
fe
07
fa
05
f8
fa
05
07
03
ff
fb
fa
f9
08
02
01
fd
00
04
fb
00
02
fd
06
ff
fe
06
fb
05
02
00
00
01
fe
08
00
fe
fa
03
02
05
08
00
fc
fe
00
01
00
01
03
fe
f9
01
ff
fd
00
fb
05
06
02
02
05
fd
04
08
fc
02
fb
fb
02
ff
fe
07
04
06
03
ff
fe
ff
05
ff
04
fd
fe
05
03
fa
00
04
ff
05
01
01
fd
04
02
04
04
fc
04
fe
08
fc
06
fa
07
01
06
f9
fa
02
06
05
ff
01
ff
fd
fd
06
08
0a
fe
03
02
fb
fe
01
03
fe
07
fd
fc
03
05
01
06
fb
01
fc
07
f7
fe
fd
07
03
04
05
01
06
fe
ff
01
00
05
01
07
fa
09
04
01
05
fd
0c
fd
fe
00
fb
ff
02
09
fe
01
08
f8
ff
06
01
fc
fd
02
ff
00
fd
04
08
03
02
0a
00
05
03
fe
ff
02
08
fb
fa
fc
08
02
00
fe
03
fb
fe
00
01
fe
08
fd
05
04
03
02
09
fb
09
01
00
02
fa
fe
f7
ff
00
fe
00
03
01
09
ff
fe
f9
fb
06
03
fb
fc
fb
01
fd
fb
04
06
fc
fe
04
08
0a
fd
03
06
fa
fc
fe
fc
07
02
06
03
04
07
05
05
03
fe
05
07
fc
fd
fc
06
05
01
08
fb
02
fb
02
00
ff
01
04
fc
fd
08
00
ff
fc
04
05
03
fc
08
02
03
fa
01
02
02
02
fc
05
fc
fb
05
06
ff
fd
fd
f7
00
05
05
05
03
05
0d
fe
03
fd
08
04
08
fe
03
fc
02
fd
ff
fe
02
f8
fe
fc
f7
05
00
fe
09
fd
fe
02
02
fc
06
ff
fd
01
fc
ff
01
02
fb
00
03
fc
fe
ff
ff
ff
fb
fb
fc
fc
fb
fc
06
01
00
fc
04
fa
fd
00
fe
fc
ff
08
01
05
08
fc
06
01
03
03
03
fd
05
fe
01
00
fc
02
ff
f6
08
ff
fd
04
00
04
00
07
09
f9
05
fb
fd
07
03
08
fe
09
fa
09
02
06
fb
fd
02
00
f6
fb
07
fc
fc
01
05
08
01
00
05
00
01
05
fa
f6
04
05
08
02
03
05
03
fd
03
00
fa
fd
ff
06
07
fb
04
00
04
ff
00
04
f9
fb
f8
05
04
07
07
fa
ff
07
f9
06
05
fd
fc
ff
03
f8
fb
04
02
05
02
01
06
fd
0a
f9
fc
fb
08
fb
f9
07
0a
01
08
02
05
fa
01
08
03
fd
fd
ff
08
06
07
00
f9
fe
00
fb
02
fd
fa
fa
00
01
fb
fb
fc
03
fd
07
fc
06
fc
02
00
fd
ff
f9
fd
fe
00
02
08
ff
03
fd
fc
fe
fc
06
00
08
ff
02
f8
fe
ff
fc
fb
04
f9
00
04
02
05
07
ff
fa
fc
f8
0c
00
fd
fb
07
07
0e
06
08
09
01
00
02
06
09
fd
01
fa
fb
05
00
04
05
ff
03
04
07
02
02
01
f8
01
03
0a
04
06
01
07
00
ff
02
fe
05
ff
07
00
07
f8
08
fe
00
06
07
02
02
fc
00
00
07
08
f9
ff
06
08
03
02
fb
00
fa
03
08
00
fa
07
08
f8
09
03
fd
fa
05
03
fc
05
ff
01
03
07
07
02
ff
fe
ff
fc
00
ff
ff
fd
00
02
fc
01
0a
fe
fb
fd
fb
04
01
02
fd
fc
fa
04
02
fd
04
fd
06
01
08
03
fa
fe
f8
06
03
f9
fd
04
fe
fe
06
08
08
ff
04
fd
08
09
08
03
00
fa
00
06
03
ff
ff
05
fc
01
fb
04
00
00
01
02
01
fd
02
ff
02
fd
fb
06
00
05
f8
04
ff
01
03
00
05
fb
03
f9
ff
09
06
03
07
fd
04
f9
08
02
fc
fd
fe
fd
07
06
04
06
04
02
fc
06
fb
05
fe
00
fb
fe
fa
06
00
fb
fd
ff
00
f6
06
fe
06
fe
fc
02
08
ff
01
fa
fa
fd
00
fb
04
00
fd
01
fd
07
03
0c
fe
07
fc
07
ff
00
07
fe
fd
01
02
04
02
07
ff
07
02
03
fc
f9
08
05
00
07
06
fa
02
fe
fa
01
fb
00
08
07
01
03
02
fc
02
f9
fd
03
02
fa
fc
07
02
ff
05
00
ff
08
fb
ff
05
03
fa
fe
08
f7
f7
fb
03
06
01
fd
06
f8
02
f5
f9
02
02
ff
01
06
0d
05
fc
00
01
01
01
fb
01
fc
fe
06
fc
08
fc
01
02
06
fd
03
fe
fe
06
03
02
06
fe
03
fb
f7
ff
fa
fd
04
f7
fe
fe
fa
fc
ff
04
05
03
fd
ff
04
fd
0a
f7
07
07
08
fe
01
06
07
f6
fd
02
05
f9
04
03
fd
05
fd
02
08
06
04
f6
f6
0b
03
01
03
04
05
00
01
fc
09
08
fd
fa
fb
fd
04
ff
03
fa
04
07
fe
00
fa
00
0a
fc
05
04
f8
01
06
08
fe
02
fa
04
08
03
fe
02
06
05
09
07
02
08
fe
06
ff
03
07
05
03
06
fc
0a
06
fb
fd
fb
fd
01
fe
08
03
ff
04
04
00
fe
f9
ff
04
fa
01
02
05
02
04
fe
00
fc
05
ff
fe
07
06
02
0a
ff
fa
05
06
fb
fe
02
05
01
fd
ff
fc
06
03
ff
fa
06
0a
fb
07
fd
fe
01
fe
02
fc
fd
fe
06
04
07
ff
08
02
f9
05
02
00
03
02
fd
05
ff
08
0d
fd
fc
09
fe
06
ff
fd
fd
03
05
03
fe
06
fd
fd
fc
01
f8
01
02
fe
09
fc
ff
06
04
fd
06
fa
08
09
fc
ff
04
09
fe
06
04
02
05
fa
07
f3
f8
02
01
00
03
07
05
f9
fc
06
f9
fa
ff
02
09
06
09
09
01
08
03
06
02
00
03
01
06
01
07
00
fc
fe
06
fb
fd
03
00
07
04
00
01
fa
fe
fd
fc
04
02
03
06
06
fa
01
08
02
02
fd
fc
0a
08
04
06
05
ff
01
09
05
fc
06
06
01
01
08
07
fa
fe
02
02
fa
0b
08
fd
02
00
06
0d
08
07
00
06
07
07
fb
04
07
09
01
fd
f8
00
06
06
fb
fa
05
fb
04
fe
f7
f8
fc
fd
ff
04
fb
00
fe
07
fc
fa
03
05
00
07
fe
fd
fc
fe
f9
fa
08
ff
03
07
02
fe
05
ff
fd
fd
f7
01
05
01
05
01
0b
fc
fc
fc
fe
fc
ff
07
fe
fd
00
fd
06
fb
07
04
00
08
fc
06
08
04
09
04
fd
ff
ff
fa
04
fb
04
08
fa
fc
01
01
fc
f6
fa
fd
06
01
fe
01
07
f8
01
fe
08
06
ff
03
fc
01
fd
fb
03
07
fb
00
04
04
fd
fb
06
07
02
08
fc
09
f9
01
fd
ff
fc
fa
fd
01
05
fb
f9
fb
fa
fe
02
fd
02
00
fb
07
fd
fd
fd
00
0a
00
fb
08
02
03
03
04
fd
fe
01
ff
fe
09
fe
05
f6
05
08
05
07
06
06
02
06
08
fe
04
01
fe
fb
00
0a
fc
0b
01
fb
05
04
ff
05
01
ff
03
05
fb
01
fe
01
01
fe
04
00
04
00
05
0a
f9
fa
ff
08
fa
fd
04
ff
07
06
08
02
04
fd
fc
fa
03
01
fd
fa
fd
08
fb
03
09
03
07
fe
fb
fa
00
ff
08
04
fa
01
01
00
08
ff
fb
ff
ff
fd
ff
01
06
04
fd
ff
06
06
08
04
03
01
f8
fe
fa
fc
fc
fc
06
0a
03
fa
fe
fb
f8
fd
05
06
fe
05
06
02
06
00
ff
05
ff
09
0a
f9
08
01
fe
ff
fb
08
01
fd
fd
07
08
06
08
fb
fb
fc
01
01
06
fc
fd
ff
08
07
03
fe
fa
fa
fc
04
fe
00
02
00
07
06
fb
fb
08
f7
06
05
fd
0b
02
06
07
04
fa
fa
fe
05
02
fe
00
01
05
05
ff
ff
08
0c
fd
fe
02
06
fe
05
fd
fe
07
09
fa
f9
fc
09
f9
fd
01
05
00
fc
00
01
06
01
00
03
07
fe
fe
02
03
08
08
fd
fe
07
fd
fc
f9
f9
08
01
06
f6
f9
01
fb
00
fd
03
fb
07
07
09
00
fb
03
ff
00
fb
01
ff
06
01
ff
02
07
01
fe
f3
00
01
fd
07
03
01
04
06
03
01
fc
f9
01
03
fc
02
fd
09
ff
05
06
fe
03
fb
04
06
fd
07
04
06
06
06
05
ff
05
f6
05
fe
fc
00
03
fd
08
fa
03
00
06
fe
02
07
ff
fd
fe
fd
f9
04
fc
01
03
fa
00
04
02
02
0a
05
04
08
fb
fb
02
07
f9
08
fc
fe
01
00
08
02
01
07
02
09
08
fa
07
ff
fe
08
fe
fa
fa
06
fe
fa
05
05
08
fa
fb
fe
f8
01
04
ff
04
05
f9
06
07
06
fe
09
00
02
fc
f9
f8
fb
fd
09
fe
fe
fd
f7
01
fc
ff
00
ff
01
07
07
0a
02
02
fe
03
fe
03
fc
fc
fd
06
0a
fa
03
04
fc
03
06
05
ff
03
fa
fe
00
fe
04
fa
08
02
01
02
08
06
03
f9
fd
fb
02
ff
f7
ff
05
03
fd
fc
06
07
03
fc
04
ff
01
fb
01
02
08
fc
04
00
ff
fa
fb
ff
02
fa
05
fd
fa
fc
fc
fd
00
0c
ff
02
ff
05
02
01
01
fe
00
fa
fd
06
fc
fd
05
06
fc
f7
06
00
05
04
f6
ff
ff
05
07
05
fa
fa
fe
03
ff
fd
03
fd
fd
fc
00
04
02
fb
01
09
f9
07
f7
07
f5
05
fd
01
01
fe
ff
05
02
fc
06
fa
f9
04
08
fb
0a
05
ff
04
fd
07
ff
fe
03
fa
fa
fd
f9
fd
08
07
01
01
02
02
fa
07
fb
fe
05
05
05
ff
01
ff
05
fb
08
01
01
02
01
07
01
fd
04
01
07
07
09
fa
fb
f9
05
03
02
07
fc
00
08
ff
fb
fb
ff
00
fc
03
02
05
fb
00
01
05
fb
03
fe
fd
04
07
ff
00
04
00
ff
ff
07
fd
fc
01
03
fb
fb
03
ff
05
06
03
fe
fc
fd
fb
0a
fd
08
fb
05
03
f8
fb
fa
06
03
fe
04
03
f8
07
f7
05
fb
fe
08
fd
08
0c
fe
fc
00
f8
04
fe
fe
fc
05
fe
02
08
01
02
00
ff
01
05
04
04
01
ff
00
fa
ff
fd
03
01
fa
02
ff
fd
02
fd
05
05
00
07
04
01
00
07
fe
fb
06
0b
04
fc
fc
fc
02
ff
00
05
07
fd
01
ff
fa
06
08
fd
07
05
00
fd
fd
ff
fe
01
fd
ff
09
ff
07
fd
08
0c
05
04
fe
02
fd
04
fc
fe
fd
fe
fc
f6
fc
ff
ff
fe
00
02
0b
06
08
01
06
02
fd
ff
04
03
08
ff
fe
01
f8
f9
08
00
fc
ff
01
fe
fd
0a
f4
fc
02
ff
fd
07
05
06
fa
fc
fa
fa
fc
00
08
08
fd
ff
ff
ff
04
03
04
01
01
fe
04
00
02
fa
07
fc
01
05
01
07
f8
06
01
fb
01
04
fc
fc
00
00
fb
05
05
06
07
fe
01
07
fd
fa
08
05
09
08
04
04
00
fd
fb
01
01
01
07
f8
04
07
05
fe
01
f8
07
fa
f7
03
07
02
fd
07
03
09
fa
07
fc
08
03
00
06
05
01
07
fd
03
02
02
ff
fa
fe
f7
07
04
07
09
fe
03
07
03
05
04
fa
03
fd
ff
f8
f7
03
04
02
09
f6
fd
f6
fe
f5
fb
09
09
03
03
01
02
02
07
05
fc
01
fe
fe
06
fc
02
fd
04
00
fc
ff
fd
ff
07
05
02
fe
02
ff
fb
03
08
fb
06
f7
fe
04
06
00
fe
fa
ff
05
fb
03
06
09
03
07
fd
07
09
02
00
fd
07
02
00
04
fb
fe
ff
08
ff
05
06
02
fe
fe
00
03
06
fb
fa
fa
01
00
03
03
fa
fe
00
02
04
fd
03
01
05
fa
01
fe
02
00
fb
05
fa
fb
01
ff
02
f4
02
0c
01
fe
04
04
02
05
f9
0a
02
03
fc
09
04
00
f9
01
09
fe
01
f8
fe
00
06
f6
fc
01
fa
07
06
09
07
fe
ff
fd
05
01
fd
00
07
ff
04
07
fc
ff
fa
05
08
ff
09
f9
05
fb
07
03
06
06
fe
01
fb
fe
09
fd
fa
02
fe
00
fd
fc
02
01
06
07
fe
05
06
03
04
01
f8
fa
fe
07
02
07
f9
fc
00
fb
09
06
00
ff
fa
f9
07
08
06
fd
06
00
fd
fe
09
06
00
08
01
05
00
02
09
06
01
00
05
08
02
02
06
fe
f9
fe
fb
fd
06
f6
00
05
03
06
fc
f9
fd
ff
05
00
fd
ff
06
fe
03
fe
fd
03
02
06
04
f9
01
fc
01
fd
03
03
fe
05
ff
03
08
07
04
06
fb
04
fb
fa
02
08
02
0b
01
03
09
07
07
04
09
06
07
fe
08
03
01
08
06
fc
05
fa
0a
fc
08
ff
f9
fc
fa
07
01
fe
f9
fa
01
fb
fe
fd
ff
06
fc
fe
06
07
04
07
03
03
fd
06
06
fe
ff
00
00
03
02
06
02
05
01
ff
fd
fb
00
07
03
fd
02
07
0a
fa
03
03
08
08
01
08
04
fd
fd
07
03
f7
03
00
01
f8
fb
fe
02
fc
08
f9
06
fc
f9
ff
fa
01
fb
06
07
fe
f9
fe
fa
00
ff
f6
02
02
02
f4
ff
03
05
fe
fb
00
01
00
08
fe
01
01
00
ff
00
fd
04
0b
05
ff
03
f9
04
05
fc
04
05
f9
fc
fe
05
fb
00
fd
07
01
0b
07
fa
01
00
ff
04
fd
01
00
00
05
06
ff
08
08
08
08
fc
05
fe
00
fd
02
02
fd
02
fe
0a
00
00
fb
fe
00
03
06
fa
fe
f9
00
ff
f7
08
fd
07
00
fe
00
05
02
09
02
04
06
03
04
08
ff
02
07
05
fd
fd
fa
05
fc
fd
ff
08
fd
08
06
05
fb
00
ff
04
06
01
02
08
f7
f7
fa
fd
fd
07
f8
02
f7
03
f7
fe
07
00
07
fb
03
06
ff
ff
04
f8
00
03
03
fc
08
ff
00
fc
04
fb
01
01
01
07
fd
07
fd
fb
fe
06
03
03
01
06
f9
01
fd
06
03
05
07
03
04
03
01
00
05
02
00
05
fc
01
09
00
01
04
ff
fa
04
00
02
f8
ff
01
fa
01
ff
fd
fd
00
08
07
03
03
fe
f9
fe
00
05
ff
04
fe
00
03
ff
08
01
08
fd
fb
06
fd
03
fc
fd
fd
01
04
02
fc
f4
03
08
fc
00
ff
04
fb
08
02
00
fd
fc
fe
09
04
06
fb
fa
08
fe
ff
01
07
f7
0a
fb
fc
07
fe
f9
03
08
02
f8
09
fb
fd
03
00
03
0a
02
01
06
02
06
fc
06
07
07
fc
02
09
fa
04
fa
02
fe
05
05
fc
ff
02
02
fb
00
fc
03
01
09
fd
fa
03
04
04
fc
06
fe
00
01
00
07
02
fe
02
06
fd
01
ff
02
02
fe
06
fc
fd
01
00
06
04
fa
05
04
02
04
05
09
fd
08
09
06
03
fb
ff
ff
fb
06
07
02
05
05
00
03
fa
04
fc
fd
04
01
fc
05
fc
01
fb
ff
01
02
00
00
01
fd
04
00
08
00
fe
fa
fe
08
0b
f8
fc
f9
02
f5
f9
fd
06
08
fb
ff
09
03
08
fd
04
04
07
01
0a
03
ff
07
01
09
06
f9
fc
ff
07
fb
fd
f9
ff
07
06
04
00
fd
04
fc
fe
fe
00
04
fb
01
fa
07
04
fb
07
07
ff
fd
fd
03
08
03
f9
03
08
07
fd
08
fd
02
02
07
0a
06
fe
07
fc
02
fd
03
01
fa
fa
ff
fa
02
0b
fd
00
05
05
fa
02
fe
fb
ff
01
fa
06
05
02
fc
fd
04
04
01
03
06
f8
02
01
ff
07
fa
07
02
fd
fd
03
07
05
05
08
00
07
01
fc
04
09
09
0a
fd
09
f6
04
f9
06
08
04
fc
08
03
01
ff
08
fd
01
04
06
fb
0a
06
02
07
07
02
fc
01
08
07
fd
fc
ff
05
09
fb
00
fc
fb
01
08
03
04
04
08
01
fb
ff
02
07
03
fb
06
ff
0a
06
08
04
ff
fc
fe
05
ff
07
05
01
00
04
fc
00
04
05
00
06
01
fd
fe
fe
00
fb
01
01
f6
ff
04
02
06
01
03
fd
09
fc
fb
fa
00
02
04
00
04
fc
01
fc
fa
f7
fd
01
fa
ff
01
0a
08
fd
fc
fb
05
05
ff
03
fc
fa
fe
fa
09
f8
00
fc
07
fd
07
03
fc
f5
05
01
00
07
00
f9
05
09
05
01
fd
fd
fa
00
02
fc
07
01
ff
04
07
fb
fa
06
06
08
fe
06
08
fe
fe
fe
fd
04
fc
01
03
f5
02
00
08
05
fd
04
03
ff
06
02
03
fd
0a
05
fc
02
03
fc
fa
08
05
0a
03
ff
04
04
01
fb
06
fb
07
04
02
fd
fd
fd
06
09
ff
03
fd
fc
06
ff
03
fd
08
ff
0d
07
03
06
08
03
04
08
fa
04
08
01
04
f9
01
ff
fe
fc
fb
02
fd
fd
fc
06
f8
ff
f9
02
08
02
fa
04
08
f9
04
08
03
00
06
fd
01
ff
09
f4
ff
02
01
fe
07
01
09
07
02
01
f9
05
01
fd
fc
00
fd
00
fb
08
07
fb
06
02
08
fb
09
01
05
05
00
08
02
04
05
fb
0a
fa
07
0b
f8
fe
03
06
04
00
01
04
09
08
05
06
04
fe
ff
fd
fa
0a
fa
ff
05
02
f6
04
fd
02
fa
02
06
f9
02
02
08
fe
07
00
fa
02
05
03
fe
fd
02
08
08
01
02
03
fb
07
fb
00
ff
03
07
fe
f9
00
01
fa
01
f4
fd
09
07
05
03
00
f7
fd
ff
04
08
03
03
06
fd
fd
fa
02
05
00
0a
f9
fe
02
0b
f6
02
02
fb
fd
fd
04
09
06
fb
f9
fb
fe
fb
03
06
00
05
00
fd
fe
fe
02
fc
05
fc
fe
03
fb
fa
fd
fd
07
fc
fd
06
f6
fd
07
01
ff
ff
fe
05
05
08
04
04
00
fd
fe
fe
ff
07
01
04
04
fa
04
04
04
04
ff
ff
02
09
01
05
00
fb
fb
05
08
07
03
ff
fb
f6
f7
08
08
ff
01
09
09
02
04
05
06
fb
fe
fa
05
fe
05
01
fc
04
06
06
f9
fc
fe
03
05
08
ff
03
00
ff
02
ff
02
00
ff
fc
fb
08
04
f8
fc
04
04
03
f6
07
f5
07
fa
01
06
07
fd
fd
fd
04
f9
00
fb
fb
03
02
fc
07
00
03
fd
fe
02
fc
f9
fd
03
02
fe
09
fc
05
08
fa
fc
08
ff
06
f8
fe
01
02
05
fa
fe
08
09
00
fe
04
08
01
07
09
06
fe
fc
02
09
09
02
01
03
07
01
ff
04
08
fd
03
04
fc
ff
08
fd
07
01
04
f9
00
05
fe
fb
02
04
04
04
0a
ff
fe
00
02
fe
09
05
ff
fa
fe
fa
fd
00
05
fe
fc
f4
fa
09
00
02
01
fd
fd
00
02
03
00
01
fb
02
01
fc
f7
00
07
fc
01
fe
07
f8
08
f2
fa
06
fc
00
01
01
03
ff
fb
02
05
fc
02
00
05
04
ff
07
fc
02
01
ff
06
01
01
f8
fd
f9
02
fd
06
05
06
02
00
f8
01
fb
03
05
fb
03
02
fa
01
05
01
fd
fe
fb
01
07
fe
fc
05
fe
03
07
04
06
06
08
f9
00
fd
fa
fe
fc
fc
fe
ff
09
fe
05
fd
fc
fa
fc
fd
fe
01
08
01
fa
0a
07
03
fa
fa
04
08
ff
05
fb
07
ff
f8
02
03
fd
f9
fe
ff
06
fd
01
01
fa
01
fb
06
fe
06
02
ff
04
08
fd
f9
03
05
00
00
f7
07
03
07
01
05
08
fe
fd
00
fa
0d
07
02
fe
fe
fb
fc
05
05
05
fd
00
03
fe
00
05
00
fe
07
fb
ff
fc
fa
05
05
07
03
06
fe
f8
09
05
fe
09
01
01
02
ff
fe
fa
fb
01
07
02
04
04
0a
fd
04
fa
fc
03
fb
fc
06
ff
f9
02
fc
fa
07
06
04
07
05
04
ff
07
fb
03
00
f9
06
00
07
00
03
fe
01
02
03
07
01
07
02
01
03
01
fc
fe
fb
00
03
ff
fd
ff
02
fe
fa
00
02
04
fa
fc
06
04
07
fa
01
fd
04
fa
f8
02
08
07
fe
fc
0b
fc
04
f5
f9
06
fb
04
03
07
09
fa
00
fd
fc
f7
fe
09
06
ff
03
09
fc
01
08
02
fe
08
05
f8
fb
fe
00
08
04
00
02
00
04
f6
03
fe
08
03
fc
fd
03
00
04
f7
00
07
0b
01
fe
04
05
06
f6
07
fa
00
01
fe
08
fd
fd
02
06
fe
04
01
fb
05
fa
05
01
fc
fd
fc
f8
04
09
05
00
01
0a
ff
05
04
05
fc
00
07
05
05
01
ff
05
00
03
f7
06
00
05
fe
02
05
06
fd
04
fe
f8
02
f9
0a
fd
fa
09
00
07
fb
fd
fd
ff
09
08
fe
0a
f9
03
f5
03
02
fa
01
07
ff
07
fe
fd
fd
00
fd
02
fd
fc
fc
03
04
01
00
02
fd
07
fa
fd
f7
01
fd
03
06
02
ff
07
00
02
f9
03
04
04
fd
f5
03
08
09
02
00
f9
09
08
08
ff
00
fc
06
02
fe
fe
fd
02
03
04
08
02
04
08
01
02
00
f9
ff
fe
03
09
fe
00
02
fb
02
08
01
06
04
00
04
00
07
06
fa
04
03
03
07
06
09
05
08
f8
ff
06
fb
05
fc
04
00
05
01
06
f8
04
fd
00
0a
04
01
06
09
08
ff
04
fe
fb
00
00
02
fd
02
06
fa
03
01
05
fc
00
05
02
fb
04
05
ff
f9
03
fd
01
fe
09
fd
ff
fd
07
f9
03
fb
fb
04
08
f7
02
fe
08
ff
08
00
00
fc
06
04
02
04
fc
03
03
09
08
00
fe
05
00
fa
fe
05
fc
02
04
02
01
05
00
08
01
fe
04
fc
07
03
03
03
fd
04
02
07
02
09
fe
fd
fb
01
09
09
06
02
05
07
05
05
01
fb
fa
05
fd
fd
00
03
fe
06
00
fb
05
00
02
fd
05
03
05
04
0a
fe
fa
01
01
fc
fb
fc
05
06
05
fb
00
fc
fb
fd
00
f7
09
f9
ff
00
f9
fc
01
fd
fd
03
00
06
00
fc
fd
ff
08
ff
02
08
03
0a
06
04
ff
00
fc
07
02
f9
fc
06
02
09
fd
fb
00
06
01
03
01
fb
01
08
f8
0a
03
01
04
f8
03
02
09
fc
09
08
06
0a
f7
08
06
07
fd
fa
07
ff
f6
fd
03
06
fd
fa
04
07
09
fb
04
02
fc
fe
01
fa
09
08
fe
fe
0a
07
09
05
02
04
fd
06
08
fe
08
06
fe
02
00
f6
ff
fb
04
fb
f8
02
04
fc
07
01
06
fc
02
fc
07
06
01
fc
00
fd
f7
00
fe
04
08
fd
07
fd
08
f5
06
06
05
00
fb
03
00
01
08
f8
01
ff
fb
08
03
05
08
05
06
08
07
03
00
ff
fb
f7
01
ff
05
fa
fc
04
05
05
06
ff
05
00
04
06
f6
fe
fd
07
09
02
00
00
06
fd
08
fc
ff
09
fa
fb
05
fe
01
04
fd
06
fb
07
0a
01
06
03
fb
00
01
07
fc
06
03
fe
03
01
0a
ff
ff
ff
01
06
03
01
fc
03
fc
fa
fa
04
fc
05
fb
fa
fc
fa
06
fc
fc
fc
00
09
ff
fd
fe
05
03
fe
05
03
fc
01
02
fd
fc
03
03
02
02
00
06
ff
03
f7
ff
ff
02
08
02
07
01
02
02
f9
03
fe
02
ff
05
0b
0a
0a
ff
0a
08
05
fc
04
09
09
01
fd
ff
03
fc
07
00
fc
06
07
fb
03
0d
07
fb
06
f9
03
fa
09
08
00
01
09
06
08
fa
06
fc
0a
fb
ff
00
03
02
ff
ff
fa
02
05
07
05
03
06
05
07
fb
fe
01
fb
fa
01
00
00
02
fd
ff
02
fd
0c
02
04
fc
fc
04
01
07
02
02
fd
03
fa
f4
fd
04
04
02
f6
05
08
03
fa
02
ff
06
ff
fb
ff
fe
fb
fa
05
fa
ff
01
03
04
04
fe
fc
01
fd
ff
f7
07
06
00
fb
03
fc
06
ff
fb
ff
f8
fd
06
04
00
01
00
02
05
07
fc
fd
01
fc
04
01
fb
fa
fe
fb
fa
02
03
05
fd
f9
02
fb
00
0a
fd
02
06
ff
fd
fc
03
04
0c
01
08
01
fd
fc
04
00
08
00
02
03
08
06
f9
02
03
fc
01
00
00
fa
fb
08
04
08
07
02
02
03
07
00
07
fe
03
08
07
06
02
fc
fc
08
00
fb
fb
fb
03
fd
fe
00
0a
fa
fd
f4
fa
0c
03
fd
08
05
f8
06
07
00
05
06
fd
fb
01
00
00
02
fb
fb
05
01
02
02
fe
f3
00
00
05
07
05
fc
04
ff
01
fb
fd
f9
04
fd
0a
fc
03
ff
08
08
07
fc
fb
05
fe
06
00
ff
fe
01
fd
04
07
fd
07
01
fe
fd
08
06
ff
07
01
06
fd
ff
04
01
ff
09
fe
fb
ff
09
f8
03
08
05
05
fc
06
fb
02
fd
fc
07
04
fd
fa
fe
08
00
fd
07
07
fd
05
fc
0c
02
07
fd
00
02
04
03
fd
02
02
04
04
fb
05
02
09
07
ff
f8
01
04
02
f7
fc
05
06
05
fd
ff
fa
06
f9
09
00
00
05
04
05
fa
fb
fc
09
ff
02
fc
08
03
fe
fc
05
06
00
f9
00
fc
0b
fd
03
fc
01
ff
05
08
fb
02
09
07
ff
06
fd
ff
ff
02
05
05
02
fe
04
fc
00
00
fe
fc
fd
03
01
03
fb
0b
01
01
09
fe
03
02
02
fd
00
07
ff
01
08
0b
f7
fd
00
05
02
01
08
09
00
09
fc
07
02
ff
ff
fa
06
04
fd
04
f9
fd
f9
02
05
02
03
03
01
04
07
fb
ff
07
07
03
03
fb
04
00
06
00
fe
ff
fd
fa
fa
fb
02
00
07
02
05
01
03
01
ff
07
07
05
08
06
fc
fc
02
fd
02
ff
02
07
01
04
ff
f3
07
05
05
02
fc
fc
07
08
09
06
05
f6
fe
05
fb
04
fe
0c
01
00
fc
03
fe
ff
09
02
fe
fc
01
08
03
08
04
02
02
fd
08
08
04
04
00
fa
02
fd
fa
fe
04
08
02
01
05
07
00
0a
fa
fc
06
08
00
fc
ff
fd
fe
00
07
fd
fb
ff
fb
00
04
02
07
fb
f8
fe
f7
04
01
02
04
fb
04
05
0a
ff
01
f9
06
fc
ff
fd
00
04
ff
fb
f9
f8
fb
f9
06
fe
f7
04
02
04
08
fc
02
ff
06
fb
fa
05
08
08
03
fe
f7
07
05
03
fe
fa
04
fc
07
f8
fa
09
01
06
02
01
06
07
ff
fb
03
fa
01
07
08
05
01
02
04
03
fe
fd
09
fe
02
03
0a
00
fe
fa
00
ff
02
07
04
fe
01
04
ff
04
03
08
06
03
01
03
00
05
fe
08
00
01
06
06
03
01
08
01
03
fd
06
03
f7
fa
fd
fe
fa
04
f9
08
06
ff
08
04
01
fc
03
fd
fd
03
08
05
01
04
07
07
fa
fc
ff
00
01
fd
ff
fc
08
05
04
f9
04
fd
05
fd
f6
05
fe
fc
08
05
03
00
fc
02
00
07
fb
05
08
fb
f9
03
00
05
ff
03
06
fd
00
f9
fb
03
ff
01
05
fe
0a
fa
fc
fa
f9
01
fd
fb
0b
fd
05
02
02
fb
05
03
08
04
01
fc
fb
f9
fc
08
03
03
02
01
fc
f8
0a
01
fd
fe
fc
07
05
fa
00
fc
fa
08
06
06
ff
fe
03
0a
f9
fe
fe
08
07
fb
08
09
fc
00
00
08
ff
ff
fb
fc
fe
05
07
fe
fa
fe
fd
04
04
03
fc
05
09
ff
0e
fe
fa
fd
07
03
06
fd
fd
05
06
08
f8
00
01
fc
f9
f8
05
0a
01
01
08
03
01
fc
02
03
07
04
fb
06
09
01
f7
00
09
06
fe
f7
03
f5
02
fb
fa
fc
05
fb
08
04
02
04
03
07
03
f8
fb
00
01
00
02
01
ff
06
07
f9
05
fa
01
04
fb
fb
06
05
07
01
06
04
01
02
07
08
fd
ff
f6
07
fe
fb
03
fd
05
fd
04
fd
06
08
02
00
05
03
fb
fe
00
fd
fb
00
fb
02
07
fc
05
fc
fe
07
08
ff
ff
06
03
00
01
ff
07
02
01
fe
04
01
08
02
05
00
fb
fa
fe
03
fc
05
05
fb
02
05
04
fe
fd
fe
fd
01
fb
06
fd
f6
ff
08
06
04
09
08
01
04
fb
05
fa
09
fa
06
06
fc
03
01
03
fe
06
fb
09
fe
08
fc
06
03
08
fb
03
04
04
ff
fc
01
fc
08
fe
04
fe
06
fe
06
05
f9
04
fb
fe
ff
01
05
fe
01
05
f6
0b
03
fd
fe
f7
ff
fc
01
fc
04
06
00
02
02
00
ff
05
05
f7
01
07
ff
fb
ff
07
00
f9
07
02
01
03
04
02
fb
04
01
fb
08
fe
fd
03
fb
06
fa
04
06
05
06
09
06
02
f9
01
02
05
03
fd
fa
09
fc
fe
03
fc
fa
fc
fc
fa
0a
07
fa
08
01
fe
05
05
00
09
08
03
fa
fc
ff
fb
02
fe
04
ff
00
fa
f8
fe
ff
02
01
fb
07
04
08
03
05
08
01
06
fe
03
fa
fe
03
01
ff
fe
07
fc
f9
fc
05
fe
00
00
fd
05
fd
fb
fd
fe
fb
fd
fe
03
01
fe
03
05
04
07
03
fa
03
fd
02
ff
fe
07
fd
07
05
fb
03
07
04
fe
fd
00
ff
04
fb
02
fe
f9
05
f8
f9
fc
fb
02
05
ff
04
f7
ff
0c
00
03
06
ff
07
05
05
01
fd
06
02
01
fd
fb
fd
00
07
fe
fa
00
04
fb
f7
fa
05
fb
03
05
f7
fb
01
f9
fc
fb
06
fc
fe
08
fc
f9
01
fc
0a
02
fd
fc
02
ff
f6
fc
08
00
ff
08
07
ff
05
fe
fd
01
f9
05
00
05
03
06
ff
fa
fe
ff
06
00
03
ff
f8
0a
f9
fe
04
04
08
02
f9
01
fc
03
fa
fd
05
fb
06
fe
00
08
fc
fb
02
05
05
03
09
0a
fd
f9
00
07
0c
ff
02
fc
ff
fe
00
09
02
02
03
03
02
00
03
fa
00
02
05
04
00
02
ff
02
08
01
01
0b
fd
08
fd
fe
01
05
ff
08
04
05
fa
05
fa
03
02
06
f7
fe
01
01
04
06
00
02
06
00
fd
04
ff
08
fd
fc
fb
ff
fc
03
02
fe
fc
01
fd
fd
f3
fd
fc
01
04
ff
fa
0a
05
09
06
fb
fb
01
fe
04
02
01
06
07
fd
fe
ff
06
05
06
04
fd
fc
08
00
03
fc
06
fb
fd
fc
01
04
fc
00
01
04
ff
06
04
f9
03
fe
0a
fc
02
ff
fd
01
fc
00
02
08
fa
fa
04
00
02
06
fc
00
05
04
03
fe
06
01
fa
00
06
f9
fd
fe
07
04
fd
02
06
00
02
00
03
02
fd
09
04
05
00
01
01
03
f6
03
06
05
fd
fe
f9
00
03
fd
05
ff
f8
03
fd
fd
fe
fa
02
fe
fb
05
f7
fb
fd
fe
06
fb
09
02
fe
f3
f9
ff
08
01
fc
fd
09
04
01
01
03
f8
08
07
04
01
00
00
fa
fa
07
01
08
02
06
00
fd
04
fb
fc
fd
09
03
05
08
00
01
fe
01
03
05
fa
06
fe
fa
f7
05
00
09
fd
fb
fd
0b
ff
fa
fd
05
03
05
02
01
06
f8
fc
02
fe
f9
03
fc
fc
08
01
05
06
00
07
03
f8
0a
07
02
02
fe
04
04
00
06
fb
fd
ff
fb
fb
ff
07
fc
05
04
fb
00
05
f9
f8
fa
03
00
00
00
fc
f8
fb
f9
fe
fb
fa
03
fd
01
04
01
05
ff
fc
04
f7
06
01
06
ff
02
ff
08
fd
08
06
03
05
04
07
f8
00
02
09
ff
05
03
07
ff
00
ff
fb
fc
04
fc
02
05
03
fc
fe
fa
fe
00
fa
02
fd
00
ff
07
09
01
05
02
00
01
fc
ff
fc
06
07
fa
fa
05
06
ff
ff
02
08
05
04
01
00
f7
ff
04
09
fc
00
ff
03
06
08
06
04
fa
fe
f8
f6
02
ff
06
fd
00
07
0a
04
06
fb
01
ff
07
04
09
02
04
02
ff
fd
00
03
fe
00
00
01
03
04
fe
02
f7
02
08
07
00
03
00
05
fb
fe
00
fd
fe
02
03
03
08
04
ff
f8
fc
00
fa
03
07
07
01
fa
06
ff
f8
fd
fc
04
07
06
07
00
fe
08
00
fd
02
04
05
fd
02
00
02
fa
01
07
09
fa
fd
04
02
fd
03
04
03
01
07
fe
08
fa
ff
08
ff
00
03
06
0a
06
fd
06
08
01
00
fa
06
fd
fb
06
08
08
00
05
00
08
04
ff
fd
03
02
fa
f9
fa
08
04
02
07
01
ff
0a
fb
fa
05
fc
08
ff
fd
07
08
fb
02
ff
f8
fa
fd
02
00
fa
0b
ff
04
0a
f8
04
fc
07
02
09
fd
fc
08
03
04
f7
00
08
00
0a
fb
ff
00
00
f5
03
01
05
04
04
fe
05
00
00
02
05
fe
fd
fc
05
06
fe
02
fa
04
09
03
ff
01
fd
fc
00
02
fc
06
02
03
07
00
00
f9
0b
02
03
08
fa
fd
07
08
fa
fa
fa
fc
ff
fc
01
05
0b
05
fe
00
05
05
03
05
08
06
00
05
fe
03
f9
06
ff
00
ff
03
08
fa
f8
f9
fd
fd
05
02
04
fe
fd
fd
05
fb
fb
ff
03
ff
01
02
fb
fb
08
fb
fa
03
04
fa
01
f7
f8
07
fc
06
01
fe
fe
04
03
0b
fd
08
07
01
00
02
02
05
00
05
07
00
01
f7
07
ff
fd
ff
03
06
01
06
0d
f9
04
06
f8
04
09
fc
06
fe
fe
08
01
02
02
ff
02
07
07
04
ff
02
fd
06
fb
09
03
01
07
03
08
fd
00
09
05
fb
05
fd
fd
f9
fa
fe
01
03
02
00
fe
04
01
01
fd
0c
05
04
07
ff
04
03
fe
06
fb
01
02
07
04
00
fa
06
ff
04
02
00
fe
ff
08
ff
06
fa
0e
fa
fe
00
03
06
06
fc
fc
09
fb
03
f9
fc
f9
00
02
fa
f9
04
05
06
00
02
ff
08
f9
04
04
04
03
03
09
05
f8
09
fd
09
02
f7
01
f6
06
f6
05
08
fe
fe
06
fa
05
06
07
05
f9
05
ff
06
00
01
fd
02
04
fe
03
06
fe
fa
04
00
05
fc
05
fc
03
fe
fc
f9
fe
03
06
fe
fc
07
fd
00
fc
07
03
03
fa
fa
fc
00
04
09
02
06
04
05
fe
06
fa
03
fb
03
ff
03
fc
fb
f9
01
04
02
03
07
ff
fc
f8
00
fe
f9
03
00
05
04
ff
fb
07
fd
00
00
fd
03
fe
01
fa
03
09
03
04
02
02
f8
02
fd
04
ff
ff
fe
09
01
fa
02
fb
00
fd
01
fc
fc
ff
f7
00
04
ff
00
05
f9
06
01
07
f8
fa
fe
04
02
02
00
06
00
03
fa
fb
04
01
05
fc
ff
00
00
fa
fa
05
ff
fa
fa
04
ff
04
fc
03
fb
02
fd
08
fb
fe
f9
05
fe
03
05
fd
07
fa
fb
03
00
fd
02
09
ff
03
ff
02
fe
ff
ff
02
04
08
fe
03
fe
01
08
ff
fe
fc
02
01
ff
08
03
02
04
f9
ff
ff
fe
01
04
08
fb
03
04
0e
fd
02
ff
fb
fd
06
ff
01
06
ff
ff
04
01
01
fb
fb
f6
f9
01
03
fc
fb
03
fb
07
fc
09
06
fd
08
01
01
f8
fd
fa
00
fd
0a
03
06
03
06
fa
05
fe
fc
05
fd
fe
00
04
fc
04
f8
fa
fe
08
fd
fd
05
fe
04
01
fb
fd
ff
fb
fb
04
02
00
fb
06
fe
fb
fb
fa
fc
01
fe
ff
ff
0b
04
fe
01
fb
03
f7
fa
fc
ff
08
fe
fc
00
0a
fd
01
08
03
ff
01
05
ff
00
04
fb
06
06
00
fb
03
00
fd
fa
07
04
fb
ff
f8
05
00
03
0a
07
fe
01
fa
06
fd
fa
00
fd
fd
00
07
ff
06
fd
ff
fa
fa
fc
f7
fb
0a
fd
06
ff
f8
00
06
fd
05
03
06
fc
07
fd
fb
fb
fc
02
06
00
f8
07
f7
05
f5
ff
01
08
07
02
fe
0b
ff
00
03
ff
fb
ff
02
03
ff
07
02
05
fc
01
fa
fe
05
08
fb
07
f8
fa
03
06
07
05
02
07
fe
08
07
fb
00
fa
fd
fe
06
fa
04
fd
fb
fd
fb
00
fb
0b
01
f9
05
00
05
00
fe
fe
07
f9
ff
fc
fc
ff
fc
04
03
fb
07
fc
01
f8
01
f7
f9
0b
09
ff
ff
05
07
01
07
06
00
fb
00
07
03
03
03
01
ff
04
01
fb
f9
07
fc
fb
0d
03
fc
fc
02
03
fc
f9
09
01
03
04
01
05
00
fb
05
fb
06
00
fd
07
f9
00
f7
fa
08
05
ff
fa
07
00
07
ff
01
fe
00
07
04
fd
03
00
02
f9
fd
fe
06
02
fc
ff
fe
02
ff
08
00
fb
05
fe
fb
fe
fd
0a
04
ff
05
f9
fe
fb
04
01
03
fa
fd
05
ff
fd
ff
0c
09
f8
fe
07
02
fd
03
ff
fb
01
03
06
08
00
08
f8
02
08
05
05
04
fb
04
01
f6
09
07
00
05
06
01
0b
fc
00
fb
fa
fb
01
fc
02
fb
fe
ff
f7
fe
02
04
06
fc
01
05
08
02
fe
ff
fd
02
00
08
fd
fc
06
08
03
f9
f8
06
01
07
fd
f9
0a
03
06
00
03
08
02
ff
ff
fb
03
fd
fb
ff
fb
f9
04
02
02
01
fa
ff
04
05
02
fd
fe
fd
fc
ff
09
fa
08
01
03
fb
08
01
fc
02
09
fa
07
0a
f6
fa
fb
fd
03
ff
06
fb
03
fe
01
04
05
04
03
04
fa
03
00
07
fe
06
fc
08
02
ff
02
05
f9
fe
04
03
05
03
fd
03
fe
03
08
04
fa
01
0a
03
03
fc
fc
f9
fa
07
04
00
03
ff
06
fd
03
f9
05
03
01
f7
05
03
fa
02
08
05
fb
09
07
fd
06
06
ff
fd
04
f8
fd
01
07
06
ff
fc
0b
fc
0a
f9
01
02
fe
03
f9
03
07
fb
07
05
01
03
fe
fc
08
01
01
08
fc
07
01
02
ff
03
08
01
07
ff
01
02
fc
fb
07
ff
01
ff
03
05
03
00
fd
fc
06
ff
fc
f8
f8
01
0b
08
01
06
05
ff
00
03
08
fc
03
fc
fb
08
01
03
08
fb
05
08
03
02
08
ff
ff
08
fd
fe
fd
fd
01
02
05
07
fe
08
ff
05
05
00
03
04
05
fe
02
ff
06
07
fc
04
ff
f8
fd
02
fd
fe
fa
fa
00
06
06
01
02
fd
04
ff
05
05
fe
fc
f9
ff
08
06
07
ff
0a
02
0a
fc
06
02
08
fc
fe
fd
fd
fd
02
fd
fb
f8
fc
01
03
06
05
07
ff
ff
0b
f6
0b
fb
fe
03
04
02
fc
fa
fb
09
03
ff
09
03
00
07
fe
03
f6
ff
fc
01
08
fe
01
0b
0c
03
04
00
05
07
01
fb
ff
fc
06
07
fa
06
f8
fe
05
06
f9
02
fc
03
fd
03
0b
fd
02
02
06
fa
fe
fd
03
03
09
09
00
fc
01
fd
fc
09
00
ff
07
02
fe
08
f6
00
0c
f8
00
00
00
0b
fb
fb
fc
04
fd
fe
03
01
fb
02
02
05
ff
fa
fb
05
fc
ff
0a
01
03
00
02
fc
fe
01
04
04
01
ff
fe
04
fd
01
f9
01
01
03
00
ff
fd
0c
03
fe
03
fd
0e
02
01
03
fc
fc
05
03
03
ff
04
fc
06
fd
01
05
03
00
02
05
06
00
09
f7
fb
08
07
08
07
fc
00
06
03
00
02
09
fe
fc
00
05
fd
08
06
fd
00
03
fb
fe
fc
ff
fe
08
fd
f8
fe
f7
04
02
fd
09
07
07
03
09
00
00
04
08
ff
fb
08
fe
06
04
ff
f8
00
f5
ff
02
f6
05
ff
08
00
01
fa
09
ff
00
00
07
01
fa
fe
fa
fc
00
ff
06
06
fb
0e
fc
07
f7
06
09
00
fe
07
06
02
fa
02
00
f9
ff
01
00
0b
01
fd
0c
04
09
09
00
10
07
03
fd
03
02
ff
fd
ff
07
00
04
02
03
01
ff
04
ff
01
05
07
06
06
fe
07
ff
04
04
08
02
00
fc
01
07
06
fb
03
fc
fb
02
02
fc
04
00
fc
06
ff
08
07
fe
06
fb
fd
02
fa
03
04
f9
fd
0a
07
04
fe
fd
07
f4
00
09
ff
fa
fe
02
fe
fa
f9
f7
05
f8
00
fb
f9
08
06
06
09
f8
fc
03
02
01
01
06
02
04
ff
fb
fc
00
05
fc
fc
06
0b
f8
07
f3
00
00
07
fc
07
fb
fc
fd
08
fc
fa
fb
09
0d
fd
fb
fe
fd
07
fe
0c
fa
14
fd
05
fc
08
f9
06
04
01
08
04
02
fc
00
05
fd
fb
00
00
01
08
05
00
03
07
0d
0d
fb
03
07
01
06
00
fd
08
08
02
fb
05
01
fe
05
0b
fb
fd
fe
ff
02
07
02
0d
03
08
f8
00
fe
ff
ff
fb
08
ff
07
06
00
fb
f3
04
fe
02
03
fa
04
fd
04
fe
f6
05
fa
f9
04
f2
00
fd
02
05
f7
fa
02
02
fb
fb
fd
04
09
02
f2
f9
05
ff
fe
03
08
02
01
02
fb
07
02
02
fa
fb
ff
05
07
fa
fa
ff
f9
01
0a
0a
08
05
fb
08
01
0d
f8
11
08
fd
06
04
02
07
01
09
fc
03
ff
06
f9
0b
fb
07
0b
00
05
06
ff
02
fe
05
03
0c
ff
02
07
fe
fc
f9
fe
05
00
00
fd
fb
08
fb
ff
07
00
01
06
08
fe
04
fe
0d
03
06
fe
ff
fb
02
fa
05
04
01
09
0e
05
08
f7
fa
00
00
ff
02
02
ff
01
f2
fe
08
f7
fd
02
fd
05
02
03
fe
02
01
ff
07
04
08
fa
fe
00
ff
ec
ff
00
fe
07
0a
07
04
f5
09
ed
fa
01
08
01
02
fb
01
ff
03
fa
fe
fa
02
0e
03
f9
fc
03
f9
01
0a
fb
00
08
08
05
09
fe
00
03
04
02
07
fe
06
ff
ff
fc
fe
08
f8
02
05
0a
fc
fd
00
07
16
fc
fc
05
f7
05
fa
08
00
04
08
fa
07
02
fa
ff
05
fd
fa
03
05
07
05
fc
0e
fe
09
ff
05
02
07
f5
fb
03
ff
04
11
fd
00
f9
fa
fe
fa
fd
08
fc
07
02
fe
fc
10
00
02
fb
f8
0b
fd
fa
fb
f8
01
fe
07
fa
01
06
04
07
03
f8
03
01
fd
0a
02
fc
0d
fa
02
f8
ff
07
fe
fe
01
fc
f8
02
ff
f7
f9
f5
08
0e
02
fd
fc
06
03
fb
09
fd
07
01
03
f8
06
fd
ff
ff
fe
ff
02
02
07
f8
0a
fb
05
07
f8
07
00
09
00
09
fe
11
0a
fe
ff
08
08
fd
f2
00
06
ff
07
01
04
fe
02
fc
06
07
00
fa
02
07
07
06
00
fb
02
00
fe
fc
00
ff
fc
fb
03
08
11
09
fb
f3
fc
fd
fd
06
fb
03
fc
fd
fc
f7
07
f8
02
f8
f1
06
fe
01
01
fc
fe
09
fe
02
fc
04
06
fb
fe
f9
fe
05
fc
01
ff
ff
06
f4
05
f7
01
08
fb
fc
0a
05
fc
03
fd
04
04
f9
fc
0b
06
fa
06
03
08
08
09
f7
09
07
04
f9
09
fb
00
06
04
09
03
05
fa
f7
02
06
00
07
fa
ff
fb
02
08
fb
ff
0e
09
05
08
fa
fb
01
f8
06
fe
fd
02
09
06
fe
04
00
10
05
fc
06
04
09
07
fc
03
01
fe
05
04
02
09
01
fc
01
07
0e
12
02
fe
f7
06
05
03
fa
07
06
09
ff
03
f2
12
fc
fe
00
f7
06
06
04
08
01
02
fc
07
fd
01
01
09
09
06
ef
04
01
05
0a
fd
03
09
f7
05
f9
f6
00
04
fb
05
fd
fe
0e
03
05
f9
f2
06
05
06
06
fc
fb
01
fa
04
f8
0e
fa
fe
ff
07
f7
01
07
00
fd
fb
07
fd
f5
01
02
fb
fe
fc
06
01
04
04
03
01
0c
0e
fa
03
fb
01
fd
f8
fe
ff
fd
00
00
03
fb
f7
00
0f
04
00
ff
05
03
08
07
03
07
02
f8
07
03
0a
f5
00
fb
fd
11
0b
02
07
f6
fe
04
09
02
03
00
01
08
ff
f5
12
fa
04
00
f1
fa
00
fa
06
f8
fd
fd
02
f5
fd
fa
fd
fe
08
f2
fb
fd
07
05
08
02
02
00
08
fc
06
09
06
f9
fe
fd
03
0d
03
05
02
fe
01
0a
fe
07
07
00
fa
ff
08
f8
07
04
01
03
0b
03
01
fe
04
07
fb
04
fa
f7
0d
07
08
06
f7
0d
fd
0c
fd
f5
fa
06
0f
09
05
05
fe
fe
fa
ff
01
fc
04
04
fb
fb
f9
06
07
06
fd
fb
fe
09
04
04
05
fe
08
fb
02
05
09
02
fc
ff
08
0d
09
fb
fd
f8
fc
03
fa
06
01
fc
ff
08
f6
f4
0c
fc
f9
03
f8
05
09
fa
03
00
fe
08
04
fb
00
04
05
00
fb
f4
01
02
00
05
01
fa
04
fc
0a
fb
fe
07
05
01
08
ff
fc
09
fa
ff
00
f5
05
fc
01
08
fb
f9
00
03
07
02
04
fa
07
06
f9
fb
04
00
fe
fc
01
06
04
fe
0e
03
09
01
01
04
fe
05
fa
fe
fb
ff
0e
fc
fb
ff
08
01
04
fd
fe
f9
fe
ff
06
03
f6
06
02
fe
f7
fe
08
fc
02
03
0b
fc
ff
03
fe
fb
04
03
08
02
0a
08
07
fb
09
f9
06
ff
fb
08
07
01
fd
fe
fc
fd
0d
00
ff
fe
f8
0a
06
02
fd
fd
fc
09
00
06
fa
07
02
07
03
01
00
04
06
06
0a
fc
ff
f9
0e
f1
f8
07
02
fb
02
fb
07
05
06
fd
04
02
02
01
0d
fe
ff
f9
07
07
ff
fb
fe
08
06
03
f9
fd
fd
fd
06
fc
fe
08
05
01
15
ff
fc
fa
fa
0e
01
05
fb
f2
01
00
03
ff
fb
ff
fc
06
fd
05
01
02
fd
01
06
fd
fe
07
02
06
fd
00
07
01
06
fb
0c
06
08
fe
00
f9
04
ff
02
ff
03
12
0a
fe
05
00
09
fd
05
04
fe
02
03
01
fa
fe
09
fc
f7
f5
fa
07
fc
f9
fc
00
ff
fe
05
08
fc
07
07
03
03
03
06
03
fe
02
ff
f8
0a
fd
08
ff
03
01
04
00
03
fa
06
09
fe
00
05
00
07
05
07
fd
02
0a
06
f9
ff
f8
fd
08
00
fc
01
05
fb
07
05
01
07
fb
fb
03
04
fe
ff
fb
f9
06
00
ff
fb
00
07
03
03
09
00
06
08
01
fa
03
01
09
03
fe
00
fc
f9
04
04
fa
05
fe
ff
08
fb
08
0a
fd
01
f6
00
00
0c
fd
00
fc
06
00
0f
fa
09
fc
fe
fb
00
02
fd
08
05
07
f6
f9
08
01
03
f9
00
ff
ff
03
00
f9
07
07
05
03
06
fa
06
fd
fd
00
f9
03
04
09
fe
03
00
f6
04
f5
fc
06
ff
02
fa
fc
01
08
05
07
02
00
fa
00
0d
09
02
fc
00
04
07
f9
0a
fc
03
04
f9
02
02
01
fd
07
fe
07
01
f7
04
00
fb
05
f9
0a
08
03
05
fd
07
fc
06
07
06
01
00
00
f8
ff
fa
08
07
08
fe
ff
f9
08
06
00
05
07
fd
fa
07
02
0a
02
01
f7
fb
f9
04
ff
05
fc
0b
04
0b
fb
fd
fb
00
01
ff
fe
01
02
00
00
f6
f7
06
f9
f7
f3
00
fe
fe
01
07
fd
01
02
fa
06
fa
07
08
08
09
00
fc
01
08
fd
07
f7
fb
ff
01
f3
03
08
ff
00
05
06
09
02
01
fd
06
fc
08
03
03
0a
07
00
f9
06
05
f7
ff
00
04
f8
fd
fd
fd
01
01
04
ff
04
01
fa
09
04
01
0a
f6
04
03
ff
fe
ff
fb
06
04
fa
fb
08
fd
fe
fb
06
fe
ff
fc
06
fb
05
fc
fe
fe
01
fe
fc
fa
08
fb
06
fe
05
04
fa
05
00
03
05
01
fe
fe
fe
02
fe
02
00
00
08
03
07
04
05
06
08
fb
fe
04
f9
05
f5
03
07
fd
06
01
00
04
06
01
fb
04
03
04
fd
08
f9
05
00
fe
07
09
fa
fc
f5
04
fe
04
fd
fe
06
ff
09
04
fe
fb
02
05
fc
04
03
02
09
ff
09
03
fb
02
fa
09
ff
03
02
03
fb
06
01
08
02
00
ff
fc
fb
0a
05
06
0a
03
fd
00
06
05
04
fa
07
03
06
fd
fc
ff
08
ff
09
fc
09
fd
ff
ff
02
fb
fb
07
fe
f9
00
ff
fe
01
09
ff
05
f9
ff
02
fa
04
fb
02
fd
0a
01
08
00
fc
05
02
fa
04
02
fd
07
05
04
f8
01
04
01
fa
f9
fd
07
fa
fd
07
01
04
06
fd
ff
fc
ff
09
fc
06
fd
04
ff
ff
fe
fe
ff
00
fa
08
f5
fc
04
04
fc
01
05
06
04
02
00
03
f7
06
fe
04
00
01
fe
fe
07
06
fe
fb
06
fe
fe
08
00
01
08
08
07
00
06
fe
fb
ff
02
04
03
f8
fc
05
06
04
fb
fe
04
fe
07
08
fa
fe
ff
f8
08
fe
05
fc
03
00
00
fd
fc
fe
01
06
03
f8
06
06
00
07
fa
ff
07
fd
ff
03
04
fa
05
fd
01
0b
07
06
fc
04
01
00
04
04
fc
ff
fd
03
02
f9
01
01
f4
fc
04
04
01
fc
00
00
fc
fc
00
fe
02
09
02
09
01
05
fe
08
fc
fe
f8
08
fc
0a
fb
01
fe
03
ff
01
01
06
00
01
06
00
fa
02
07
ff
04
05
04
00
00
fe
03
fa
ff
01
fc
07
f8
fa
fd
06
01
08
01
ff
fa
fc
09
03
04
fa
07
fe
fd
09
f6
02
ff
02
fd
05
06
02
fc
f9
00
05
03
01
08
fe
02
fa
03
00
07
00
06
f9
07
fc
fe
fa
02
03
04
01
03
ff
03
fd
00
08
00
ff
06
08
03
06
01
03
07
fc
02
04
00
01
f9
00
07
fc
f4
f9
0c
03
04
fe
fc
fa
07
fb
fe
06
fd
08
ff
08
04
ff
00
06
05
0a
f9
fb
f7
08
fb
06
09
00
03
fb
05
08
fd
05
06
ff
01
01
02
fd
00
00
ff
fd
05
fd
ff
02
06
01
fe
02
fe
06
fb
fd
fa
fa
01
02
f7
0a
00
00
fe
04
06
01
05
fe
03
06
01
05
07
05
07
04
04
fd
02
fe
06
07
ff
fd
fc
ff
08
04
fb
04
05
05
fd
04
00
06
07
fe
fd
ff
f6
0a
09
07
fc
09
fd
02
02
07
06
fa
04
06
07
fd
fb
fd
02
fc
05
fb
f9
ff
fd
04
01
06
00
05
fb
ff
fe
02
02
fd
05
08
08
fe
f9
f6
01
04
08
01
fd
06
f8
04
fb
05
06
02
fc
ff
ff
0b
02
05
01
f9
00
06
07
01
00
08
ff
00
08
01
05
06
fa
fe
00
fe
f8
fc
05
fc
fd
01
01
08
fc
07
05
03
ff
fc
fe
02
04
07
f7
f9
04
ff
05
02
00
08
06
f7
01
04
06
04
05
06
fc
01
02
04
07
fc
08
ff
06
fc
03
04
fe
ff
ff
fd
fa
07
00
06
ff
03
03
06
04
00
fe
07
07
03
05
00
00
07
05
f6
ff
08
03
fe
fe
01
0a
fc
08
06
f9
ff
04
04
02
00
08
fe
01
fc
01
ff
ff
fa
fc
fd
f6
ff
03
0a
fd
f8
09
00
ff
05
02
05
02
fa
fd
03
fe
06
ff
05
02
ff
06
ff
fb
fb
05
05
05
fe
04
ff
fa
fd
fc
fe
01
00
02
04
04
06
fa
fe
00
fe
01
07
fb
fe
00
01
fb
07
03
01
fb
ff
08
fa
06
07
fe
02
08
fd
03
02
08
07
04
fb
01
04
02
ff
00
00
09
01
fd
ff
fd
01
ff
00
06
03
09
00
06
fc
01
07
00
ff
03
08
ff
fc
08
f7
01
04
05
05
f6
01
08
05
04
fc
03
fe
fd
06
00
ff
04
02
07
01
f9
fc
02
03
04
08
f6
fc
fc
fe
fd
ff
02
fe
fd
04
fd
06
f8
fc
ff
04
f8
06
ff
08
08
08
05
fe
fa
fc
06
08
ff
ff
fb
01
fa
08
fc
05
07
07
f9
07
03
03
fc
01
08
fe
fe
02
08
03
01
02
01
03
07
05
fe
07
04
f7
05
04
08
fb
fc
f9
00
f5
01
ff
03
fa
fd
00
03
07
03
ff
fb
00
fd
f7
f6
03
05
08
09
04
09
00
06
03
04
07
fb
05
03
fb
07
00
07
f7
06
fe
02
04
f8
00
05
fc
08
07
00
fa
fa
05
02
04
04
04
fe
fb
01
fc
fe
04
09
0a
00
06
fa
01
f6
fc
ff
06
00
01
00
06
01
fc
f9
06
fc
ff
08
02
fc
fa
00
08
fa
02
05
fb
fb
fb
f9
fc
04
fc
06
06
00
03
03
07
fb
07
04
07
04
fa
fb
06
03
04
f8
fc
09
fc
04
fc
fa
09
08
03
01
ff
07
03
fa
07
06
00
fb
fc
01
05
fc
fa
fb
00
07
fd
fa
fb
ff
f7
f9
fe
07
fc
03
08
fd
09
01
04
00
fd
fc
06
fc
08
01
03
fb
fd
fa
01
fb
04
fa
02
04
08
06
0a
00
fb
fc
07
04
ff
00
fa
fa
07
f8
05
fd
07
06
ff
fb
07
04
0b
fe
00
08
fd
00
06
02
00
ff
06
fb
f8
04
05
fc
08
00
06
fd
fb
fe
07
04
01
03
fb
f9
06
01
05
07
07
08
02
07
01
ff
0a
01
fe
08
04
07
fb
02
ff
f9
07
06
09
03
03
04
09
09
fb
00
fb
07
fe
ff
06
01
f6
fd
00
08
03
03
04
02
fb
04
fb
ff
fe
fc
fe
fa
06
01
07
00
ff
02
05
07
03
06
02
04
01
fa
fe
fb
fd
01
f9
f9
03
05
ff
f5
f8
05
06
03
fd
04
fb
05
fc
05
06
ff
fc
01
06
fd
fa
05
fb
02
0a
ff
03
f9
fd
f8
04
07
02
ff
04
04
00
02
ff
07
06
05
03
fe
07
fe
08
07
fd
05
08
02
03
04
08
05
06
fc
04
fe
fb
09
04
00
03
ff
ff
04
fd
03
fa
01
fd
fd
fb
f6
fa
07
fe
fe
07
06
08
05
04
00
04
0c
fa
fb
04
fd
fa
09
04
08
fb
fe
f7
07
fe
fc
06
ff
04
fa
f9
fa
01
05
fe
fb
0b
04
07
01
fb
04
03
fb
01
01
fb
07
fa
00
fe
f9
00
00
ff
fa
f8
08
fe
fc
05
f8
f8
07
01
00
03
02
00
05
05
fb
06
fd
02
01
02
fa
fa
00
ff
fc
02
06
07
05
08
07
07
fb
07
04
04
f8
08
fb
fc
05
fe
0b
fb
01
09
06
fa
05
fe
fe
06
ff
01
fd
02
08
06
fe
03
f5
09
02
ff
02
f8
00
05
02
09
f6
03
fb
02
fc
ff
08
fd
07
03
fc
fd
02
04
00
fa
09
fd
fc
0a
ff
06
09
f9
07
fc
09
fd
07
fd
fb
03
f7
06
06
fd
06
ff
01
06
fe
07
03
fe
08
09
02
02
fa
fb
04
05
02
09
07
00
fa
ff
07
00
03
03
fa
fe
08
fb
00
fb
fa
fb
09
fc
fc
fc
fb
00
fc
00
f5
04
f8
fe
fa
00
03
01
00
fe
01
05
03
08
08
fa
f9
ff
04
03
03
07
fd
fc
02
00
fb
04
fd
ff
fe
06
fd
08
fb
ff
09
ff
06
06
01
0b
08
ff
0a
04
fc
05
05
05
02
fe
ff
03
fb
07
fc
07
05
ff
ff
08
ff
03
ff
02
fd
03
04
0a
08
05
03
01
05
fc
07
09
fc
07
f9
fb
ff
ff
02
00
02
05
03
0b
fa
07
fc
fc
ff
fd
fc
07
fa
05
02
04
fc
06
00
fa
ff
f7
09
03
05
01
fa
fa
03
08
06
fc
05
fd
fa
01
f5
04
01
fc
09
fc
f8
03
f5
01
f7
05
02
fe
ff
01
fa
05
02
01
ff
05
ff
04
02
09
09
05
0b
08
fe
ff
fe
fc
02
fc
04
01
fd
07
02
08
ff
f7
07
04
02
0c
03
01
0e
01
0b
02
06
fd
02
09
fe
ff
05
fe
04
f9
04
00
01
06
00
04
fd
00
fe
04
02
09
00
02
fb
f9
08
04
fe
fd
06
ff
fd
04
f8
08
f9
fc
01
fd
05
ff
01
fc
f4
07
00
09
04
07
fb
ff
01
06
f9
09
fe
f7
fe
f6
05
04
06
06
fa
07
05
06
09
06
08
04
03
04
fc
f8
09
01
fd
04
02
08
f7
02
f6
ff
ff
02
fa
ff
01
00
ff
fe
fa
fd
03
04
09
07
07
08
04
05
06
03
f6
07
03
03
fa
04
05
ff
03
07
fe
f6
01
fe
00
03
ff
06
03
03
ff
04
fc
03
01
09
04
05
04
03
01
fc
08
f9
00
01
03
02
04
02
00
0b
fd
07
01
02
ff
02
fe
01
01
0e
03
03
f7
00
03
07
f8
01
fe
fd
fd
05
00
fb
ff
07
fd
fb
fe
03
fb
03
02
01
fc
00
04
f9
04
f6
04
fb
02
fe
07
03
fb
0a
fd
fc
fa
02
fc
04
f4
f9
fa
fc
ff
02
0a
08
fc
02
fb
0b
04
09
ff
fc
01
f9
f9
fb
f9
fd
fc
02
03
ff
fb
00
11
f9
01
0c
fa
19
fb
fe
fc
0c
0b
fa
fd
fb
02
ff
ff
fa
05
fd
00
f8
0f
f7
fc
fe
fe
08
fc
07
08
0b
fe
06
02
f3
06
03
fd
fb
ff
07
02
fc
fe
11
fb
05
fa
f8
07
03
01
06
08
0a
02
f8
ff
02
f8
01
f7
07
05
fd
02
04
0d
04
fc
fe
fe
fd
fb
02
06
07
fb
0b
f5
08
f6
ff
fe
f7
f7
fb
00
07
00
fe
09
0d
f7
fd
08
00
01
07
f4
00
06
fa
fc
fd
02
fc
01
f8
fe
0c
05
03
f8
01
01
fe
f0
02
00
04
fb
09
03
00
02
00
10
fb
00
14
ed
18
07
04
fe
08
08
07
02
02
03
01
fc
fc
0c
03
01
f6
08
fa
fe
fd
fb
fe
07
05
0b
09
01
fc
09
ff
fe
fe
ff
06
fe
fc
01
06
02
08
fe
11
05
fc
ff
fb
01
05
07
10
01
fe
fb
07
fa
06
f1
fd
09
f7
f4
f6
02
fc
fa
05
fe
00
02
fc
09
09
04
08
ee
08
ff
f5
06
f9
f9
07
03
ff
02
fe
05
0f
f4
fe
08
ff
fc
fb
f7
fd
fe
fb
02
0b
07
0d
03
f9
11
0d
05
fa
f9
00
03
fa
ef
01
f6
08
fe
02
03
05
f0
00
0b
fc
fe
16
ed
14
fd
07
fa
08
10
fd
08
06
fb
f8
fb
04
07
fc
07
ff
1a
fa
07
fe
f7
06
0b
0f
02
04
03
04
00
fd
05
f6
ff
fe
04
04
06
07
04
0f
07
0f
03
fe
04
03
07
ff
04
0f
00
02
fa
02
00
f8
f2
fd
fd
fd
f9
f4
0b
07
f2
07
fd
04
07
fc
fe
00
08
03
f2
00
f7
fc
03
ef
fe
08
08
fe
04
f8
08
0c
f9
fe
ff
00
01
02
ee
fc
ff
05
00
01
04
0b
02
ee
04
08
ff
01
f3
fc
fd
fa
fe
04
f4
0a
04
04
0b
fc
f0
fd
fd
09
fc
12
f4
1b
00
ff
02
0c
04
06
02
02
fd
f0
02
06
01
fd
fc
04
14
ff
03
01
08
fb
0e
0a
07
04
fa
03
fc
ec
06
fc
fd
fb
05
02
04
02
03
0d
fa
05
04
fe
fa
fc
08
fc
03
17
fe
01
f7
0e
08
04
ef
07
fe
f3
02
f4
03
04
e9
06
ff
fc
03
07
fb
05
03
11
f4
12
ff
fc
0f
f3
ff
02
03
0a
06
fe
fe
09
f8
fc
fc
03
fd
01
e7
f9
08
02
fd
06
11
0d
f5
f1
00
10
07
03
f8
07
fa
ea
00
04
f5
fe
f8
fd
17
ff
f6
08
fb
fe
04
10
e7
19
ff
fd
f4
08
00
03
00
00
fe
00
ff
04
04
f0
05
f8
0e
01
0d
fd
07
08
1a
11
08
ff
09
fc
fb
f1
09
f0
03
fd
03
00
fa
02
02
14
fb
0e
09
fe
03
fe
f9
07
08
0a
08
03
f8
07
0c
01
f4
fe
06
fc
fd
00
fa
08
e4
04
fa
fa
fd
03
09
01
fe
07
ea
10
05
fa
09
f5
fa
04
07
05
06
fe
ff
0d
e6
fc
fe
fe
fd
02
e5
f4
fb
04
ff
02
09
0b
fc
f6
ff
08
09
03
02
13
fd
f2
06
ff
03
08
05
08
14
f7
e7
08
f0
01
fc
14
f2
11
ff
01
f2
07
00
fe
05
08
ff
ff
fb
06
f5
f3
fc
03
0b
fe
14
05
08
fc
25
07
f9
05
ff
fb
00
f3
03
f2
ff
05
ff
fd
07
ff
08
03
fc
05
03
04
fd
05
fe
03
fe
0e
06
08
f6
0b
04
fe
f5
03
09
f4
05
03
f3
02
ec
fc
02
04
04
fd
04
fe
00
03
e3
0c
fc
f4
0b
f3
fd
f7
fa
fe
08
fb
05
0b
ec
03
fe
fd
fd
06
eb
08
01
fc
00
02
fe
0c
fe
f6
fb
fa
fd
01
fe
18
03
e7
0e
06
01
f8
01
02
09
01
eb
03
f0
01
05
0d
f3
16
06
08
f0
06
fb
01
05
02
09
f8
fe
03
f4
fb
fc
fd
09
fd
0f
fe
00
fb
1d
0d
f6
05
04
fd
00
00
03
ed
ff
07
f7
fa
08
06
04
ff
fa
fd
04
f8
04
02
f8
fc
03
12
00
fd
f5
0d
01
fd
f5
05
03
f7
09
fd
f5
00
e5
fc
06
ff
fd
fa
09
fb
fc
10
ea
15
09
f2
09
f5
f8
fc
04
00
0c
fe
03
11
e6
fc
08
fe
00
fd
eb
07
fa
08
fb
06
02
0a
f2
f6
f6
01
03
fd
02
0d
04
e9
16
09
02
f3
fe
fe
14
fb
fc
01
ec
fc
fa
0a
f3
0c
ff
fc
fd
07
f3
08
06
07
fd
ec
05
ff
ee
fc
fd
09
f5
06
0a
07
05
fe
1c
07
02
08
fd
07
07
05
fe
fc
ff
fd
f5
fa
07
03
fd
fe
fa
00
ff
f4
ff
02
02
fc
fe
09
08
ff
fe
06
02
fd
f2
06
ff
fb
0b
07
f7
02
f5
fb
fc
02
08
fc
07
04
ff
07
eb
1b
ff
f1
04
fa
03
05
00
03
0d
fb
fe
0a
ed
fc
06
06
ff
ff
ea
02
02
00
06
00
fe
01
01
fd
00
08
07
06
04
0f
04
f3
0c
09
09
fc
09
06
09
02
fa
07
ec
08
fe
05
fa
0c
03
07
00
05
f7
fb
02
ff
08
ef
06
fd
f2
0a
ff
03
fb
fe
07
fd
05
01
16
fc
04
05
06
07
05
08
04
fb
fc
09
fb
fa
02
fc
02
ff
06
f4
02
fb
09
fe
02
03
fb
09
00
02
f8
01
00
01
f9
08
fd
f1
0d
01
f7
02
f7
02
ff
00
03
05
04
fd
fe
f9
ee
0f
ff
f7
01
f6
fb
08
03
fc
08
08
06
0e
ef
09
fd
07
08
ff
f6
0b
ff
fd
09
0b
fa
0c
01
05
fa
fd
ff
00
fe
0c
fc
f9
0a
07
fc
fb
0a
08
ff
0d
08
fc
fb
07
05
fa
fb
0e
05
fd
fe
03
ef
00
06
fd
ff
f2
03
04
f1
13
06
01
ef
0b
05
fd
02
04
00
04
fd
fd
02
fa
01
06
00
01
08
fd
f0
03
04
01
05
01
02
fe
01
00
04
f7
0b
04
fb
0b
fd
0b
fa
fb
0b
ff
fa
06
09
fa
1a
06
f7
fb
ff
07
ff
fc
fb
02
07
fe
fa
f5
fb
0d
fc
f7
04
fa
00
02
02
09
f8
06
fe
07
fa
ff
07
fe
fc
03
00
07
04
07
fc
00
00
03
f7
06
02
f9
02
02
07
0e
fd
ff
08
02
01
06
08
01
00
08
09
00
fc
fa
fc
fd
04
fc
ff
02
ff
fc
f5
08
fb
05
fc
00
02
ff
fd
1b
00
02
e8
fb
08
06
09
09
f2
fb
03
0d
08
fc
07
04
05
f7
fd
fd
f9
01
fd
fe
05
02
02
04
ff
01
03
f8
fe
05
02
10
08
11
f5
fd
00
08
f2
02
fe
fd
1c
07
fe
06
fe
fe
fc
03
06
fb
02
06
fa
f8
fd
08
ff
ef
fe
f6
06
01
02
05
f6
02
05
03
f5
fa
01
ff
07
fc
fd
06
04
02
07
05
f9
fc
f7
04
00
fe
02
fc
fb
09
fe
01
0e
09
f9
fe
04
fe
f7
14
fe
01
fa
07
fe
03
02
fe
ff
fd
fd
04
f7
07
fd
05
fe
f8
02
04
fc
0d
fd
11
f9
08
00
01
fe
06
f2
01
fe
fb
06
02
04
fb
05
00
fc
06
fd
05
fa
03
07
f3
07
01
00
f9
04
f2
04
03
fb
0e
fb
13
fc
f1
09
fa
fc
01
01
fd
13
06
f9
04
ff
fb
02
fe
02
00
fe
fd
07
fa
f5
07
00
fd
fc
fa
06
fe
06
fe
fa
0b
08
01
02
fa
04
06
08
fa
02
02
ff
03
00
01
01
08
fd
08
f9
f9
03
06
03
08
fd
07
08
fd
f9
00
fd
03
f8
0c
05
fc
01
08
04
fe
06
fa
00
04
03
fb
f6
09
05
01
04
01
01
08
f4
03
04
fe
fa
fb
fe
fd
03
05
f2
ff
fd
fc
ff
ff
02
f8
03
04
05
06
04
fb
03
fd
00
f5
fb
08
04
04
fe
f7
05
02
01
0c
05
12
f7
f3
fe
0a
01
fe
01
0a
0a
0e
04
04
fe
01
fc
ff
fd
03
03
02
04
f8
04
0c
fb
fb
f6
fb
06
fe
06
fc
f6
08
fe
fc
fd
00
fd
02
fe
07
06
00
fa
fa
ff
02
01
08
04
12
f9
fe
fb
fc
ff
01
ff
02
08
06
fe
fc
f7
04
ff
0b
00
fb
02
00
08
05
fa
fb
fc
fc
04
ff
ff
04
00
06
07
02
06
fe
ff
03
08
fd
fc
02
ff
fc
0a
07
f2
03
fb
ff
04
07
fb
f7
00
01
01
03
05
08
03
fa
fb
f9
00
fe
ff
04
04
02
fa
fe
fc
01
07
09
00
fe
04
02
f8
04
09
02
02
15
04
05
03
01
01
01
02
05
ff
fe
07
ee
ff
fe
00
f9
fb
f7
05
06
fa
00
fd
fd
03
f9
01
03
fa
fb
00
09
03
03
fe
05
03
fd
f8
03
02
01
fc
fb
fb
fe
02
f9
01
fc
06
fd
08
00
ff
03
02
0b
05
fc
02
fa
05
07
f4
06
08
00
00
fb
f9
05
00
05
07
02
08
03
fc
0e
ff
ff
fd
ff
07
05
fe
04
ff
f9
04
07
05
06
ff
fd
06
f7
08
fe
05
01
fe
ff
03
fe
01
06
09
01
02
fc
02
fe
06
fe
00
01
ff
03
fe
02
f7
fe
02
03
06
13
07
02
03
fe
08
00
05
fd
fd
04
02
f9
00
01
f8
f7
fc
f7
06
03
01
fe
fb
05
09
01
ff
00
ff
08
fe
03
04
00
fe
fd
02
06
fe
0a
04
03
f9
ff
05
03
fb
f9
06
01
06
fb
05
02
f7
02
fc
03
00
04
09
f9
fd
fd
f8
fb
fa
ff
07
03
fc
01
fc
00
03
01
fc
06
f5
00
ff
00
ff
04
02
07
00
04
ff
02
04
0a
08
00
07
06
fe
01
fb
fe
09
fe
03
fb
ff
fd
fd
0a
fa
fd
00
05
fe
00
02
fd
09
fc
fb
04
fb
00
02
07
02
00
05
10
fc
03
06
04
fd
06
02
ff
fd
fd
02
fa
f6
04
fd
f8
fa
ff
02
fe
02
08
fd
fc
07
06
fd
fa
00
05
09
04
03
00
fc
04
fb
ff
fc
09
fa
01
fe
03
05
00
01
f9
fe
08
06
fc
f9
05
fa
fa
f9
08
fd
01
ff
fd
07
01
fe
fc
06
08
fd
fc
fa
fa
05
01
fb
03
06
fb
02
09
04
fd
06
04
f9
fa
fd
ff
fa
04
fc
fc
07
06
04
08
ff
fd
07
02
08
fc
fe
04
02
f6
fb
07
04
fb
07
05
08
00
fc
fd
09
ff
05
f9
01
03
fe
00
08
03
04
00
fe
fe
ff
03
07
00
fc
06
03
08
fe
04
05
06
fe
04
f6
fb
08
ff
06
08
fa
fa
fe
f9
05
fa
09
09
00
05
fa
fc
fd
06
06
01
04
fe
01
02
ff
fc
02
fc
ff
06
06
ff
fd
05
f9
fe
fe
ff
fd
fc
03
04
09
fb
01
01
05
04
03
ff
05
01
ff
05
ff
09
ff
09
fb
06
fe
03
fb
ff
06
05
ff
fa
04
fd
f8
fd
02
05
fa
02
fb
09
07
01
02
05
fe
04
fb
04
09
ff
01
fc
fd
05
07
06
08
fc
fe
04
ff
04
fd
04
fc
fe
ff
fa
fc
07
ff
0d
fc
fd
04
fe
fd
fe
05
02
01
fb
00
f7
ff
fd
ff
05
02
01
00
02
fe
fb
f7
03
fc
07
05
04
05
fc
08
02
06
fd
05
fd
fe
07
fc
fe
02
00
f6
00
08
02
03
fe
08
05
06
07
04
00
fe
03
fd
09
09
03
07
fa
00
fd
02
07
05
00
01
fd
00
01
fa
02
fd
fe
fd
ff
fa
06
fd
08
fe
ff
f9
ff
00
fc
00
fc
ff
00
07
07
09
03
09
fb
04
04
09
ff
04
03
fa
00
08
fe
00
01
fc
f8
fd
08
fe
fc
05
ff
fc
03
fe
04
fc
00
00
00
ff
0c
fc
01
04
fa
fb
01
07
ff
fb
fe
fc
05
fa
fb
07
05
f7
02
02
00
07
03
06
04
03
02
03
02
04
fb
06
fd
f9
fa
04
05
fc
04
03
04
fa
06
fc
fb
ff
fd
00
fb
03
05
06
fe
fd
f9
f9
00
00
08
07
fe
fd
fc
06
fb
01
ff
00
08
06
fb
06
06
05
ff
03
fa
07
fc
f8
fe
01
02
02
fd
02
fe
03
fc
fd
07
fd
06
07
01
07
07
03
00
05
03
0a
01
02
08
04
02
03
09
fe
03
02
03
fb
05
01
08
fd
f8
fe
00
f7
03
06
fb
00
01
00
01
fb
03
fb
fd
ff
00
fe
03
08
01
03
ff
fc
02
fa
05
00
fc
04
07
08
06
03
f8
09
03
fd
08
06
03
05
02
fa
f8
08
fd
07
00
03
04
f6
01
f9
fe
04
08
fb
fb
04
0c
04
02
04
fe
01
04
07
00
08
fb
05
05
00
fd
fa
ff
06
03
06
fc
fe
08
01
ff
fd
09
04
01
f6
01
03
06
06
00
03
00
00
fe
02
fc
07
06
fe
02
fc
06
01
f8
06
05
05
01
07
00
fa
fa
02
fe
03
f9
02
fc
fa
02
06
fc
fc
fc
fa
02
fe
04
09
06
00
01
08
04
08
07
ff
fa
03
09
ff
ff
fd
08
fd
05
05
02
fc
07
fa
fb
08
08
ff
fe
fd
fe
01
f9
09
02
03
06
ff
05
06
01
03
fc
fe
00
f9
ff
f8
fd
fa
04
06
fd
fb
fc
04
09
03
fa
03
02
05
fd
fe
fe
fc
fa
02
04
08
fd
fb
02
00
01
fb
fc
fb
05
05
00
fe
05
04
01
f9
ff
fc
ff
04
fb
f9
06
05
05
f7
07
01
08
04
fb
08
fe
02
04
fe
fd
06
fa
fe
06
07
f9
fc
08
01
fa
ff
03
07
07
08
05
05
04
04
fa
fd
01
00
05
07
02
04
08
03
fc
01
01
fd
04
06
fb
06
02
fc
ff
f8
fc
07
f9
f9
06
02
03
02
06
fe
03
00
06
09
00
01
ff
ff
fc
fd
02
06
05
fc
09
ff
04
ff
02
f8
f9
fb
04
fa
fb
07
0b
ff
fc
01
ff
05
01
07
02
08
02
02
05
02
fd
fc
fd
fe
08
00
01
01
07
fe
00
02
09
fa
fa
f7
09
fc
08
05
04
03
03
04
fd
f8
fa
06
fd
fa
02
03
03
08
f7
fd
01
07
fe
05
fc
fb
f8
06
02
02
06
07
fd
01
06
fb
07
05
07
fc
fd
ff
02
fc
fc
01
0a
03
0c
01
04
03
05
02
00
04
00
07
02
04
02
f8
ff
03
02
fd
fc
00
07
02
09
f8
fd
fe
fc
08
01
02
05
fb
05
f9
fe
03
04
04
02
01
fe
fe
0a
f3
04
03
08
f9
04
03
03
fb
08
fe
06
06
fe
05
01
fe
ff
fd
07
03
02
ff
fd
07
fe
01
03
01
fb
fa
00
01
02
07
fd
f8
01
ff
09
03
03
05
fa
fd
04
f9
fd
0a
05
ff
fc
fe
03
06
01
fc
fe
00
00
05
06
03
04
02
02
fb
05
ff
f8
ff
fb
fd
01
fb
05
fa
fc
04
01
09
05
04
01
02
08
07
ff
fb
08
01
06
05
00
01
02
fb
fd
fa
03
00
04
fd
03
0c
06
fb
08
fd
fa
05
ff
05
06
fe
08
03
04
f8
06
fe
01
fe
09
fe
03
f7
f8
f4
ff
09
08
fe
fe
fa
03
07
04
08
02
fc
fd
00
02
fe
08
04
00
ff
03
f7
ff
07
05
05
05
08
fb
06
06
09
01
fd
08
fb
05
03
07
00
04
01
08
fc
00
04
fc
03
06
07
03
08
02
03
f5
03
00
00
00
01
05
09
04
04
07
03
01
07
fa
07
07
05
01
fc
fc
05
fc
f5
09
05
04
07
04
06
06
fb
fc
f9
fd
03
ff
fb
01
ff
01
03
00
fb
00
fc
01
02
02
ff
fb
fa
ff
f6
ff
00
02
01
03
06
07
fe
09
f8
02
08
01
fe
ff
f5
ff
f3
f7
fa
fb
09
03
fd
04
07
00
fa
fc
05
fe
08
05
02
03
07
05
0a
02
01
07
f8
05
07
fb
00
0c
0b
02
fc
02
00
f7
04
fa
00
03
05
07
14
02
08
fb
00
00
fd
0a
04
04
ff
fb
06
08
09
fc
07
ff
09
07
04
00
07
05
05
fd
05
05
00
00
06
00
08
02
03
03
f7
06
f5
08
f5
ff
03
03
f5
05
00
fe
02
fa
07
fc
fe
01
fb
03
06
01
00
02
06
fd
02
f8
fe
02
fb
0a
ff
fe
04
fb
00
fa
05
fc
fa
07
f4
06
01
04
0a
04
f7
04
f7
ee
fa
fe
02
fd
06
0c
07
fe
ff
fc
04
f8
0a
03
08
00
03
02
09
03
03
09
f5
00
05
05
f7
03
05
09
04
fd
fd
fb
fb
fd
07
fa
fd
08
0c
07
0b
fa
f3
03
ff
05
08
06
fc
02
00
05
07
f4
03
05
ff
04
06
01
03
08
ff
08
09
fa
01
03
02
ff
04
06
fb
fc
fa
08
fc
08
f7
03
05
01
f5
fa
03
ff
fd
fa
fe
fc
02
08
02
ff
fe
0d
f9
07
0a
fc
00
fc
fc
ff
f9
08
07
f6
07
fd
fa
01
fa
08
03
fb
f3
08
fb
02
fd
0b
01
03
fb
eb
ff
0a
04
fa
01
08
fb
fe
f8
04
f9
fa
0a
ff
08
f8
f4
fa
11
fd
04
0f
f0
07
02
08
ff
fa
0f
00
fe
fb
02
f6
08
06
0c
00
04
09
1a
fd
08
02
f5
03
00
06
08
fd
04
06
07
f4
05
ef
05
03
08
01
03
08
ff
08
fa
0a
00
ff
06
fa
07
03
08
0b
fc
fa
f6
05
fe
06
f2
02
09
fd
fa
f7
09
fc
ec
05
06
fc
fb
00
02
04
fc
12
fd
09
ff
fd
04
f6
ee
02
03
04
00
02
04
06
ff
ff
07
fd
fd
fc
f3
00
06
02
01
fe
02
00
fd
ec
03
15
00
ff
01
0a
fb
ed
fd
06
02
05
01
fb
00
fa
ef
07
09
fb
fc
16
eb
14
03
08
f7
00
17
fa
01
ff
02
f6
04
08
0a
f0
04
fb
15
03
0c
fe
fc
fc
0c
0b
14
09
05
03
03
f4
fd
f2
01
01
f9
ff
02
06
ff
0f
01
0b
fb
fd
fe
fb
0e
fa
04
11
06
01
f6
13
05
f6
ef
02
0a
fd
f7
ed
0f
04
e8
fe
00
08
fe
02
fd
05
04
10
f7
09
ff
fa
0c
00
ef
02
fa
06
0a
f8
fd
0f
f0
03
07
01
04
fe
ed
0a
fa
04
06
02
02
fb
f0
dc
15
13
fb
05
07
06
05
ef
f3
fb
f2
12
08
07
06
f3
f5
00
14
fe
fe
14
e7
1c
fd
fe
fe
07
1c
04
fb
07
fb
f6
01
fb
06
f3
03
00
18
0b
0f
01
f8
fc
0f
08
09
fa
03
06
fc
fa
fe
f3
08
fa
fe
ff
f8
07
00
1c
fe
08
03
fc
05
f0
06
fb
07
0f
01
fc
fd
06
0b
f1
fa
04
03
f1
eb
eb
0a
01
e7
fe
00
05
ff
05
07
02
02
22
fc
07
11
f7
1f
04
ef
03
02
fe
09
ef
fa
07
f3
03
00
08
05
02
f1
09
fc
fe
fc
03
16
0a
fc
db
18
14
01
00
04
06
05
f0
f6
fd
f8
1d
0f
06
ff
f0
e8
00
09
04
05
14
e9
25
fd
06
03
f9
19
fa
fb
fe
ff
f7
f9
ff
0a
eb
01
fb
26
07
01
fa
04
00
20
11
0a
f1
03
f8
04
f7
00
f4
07
fa
fd
01
06
fe
04
20
fe
08
fb
fe
04
fe
0c
05
02
03
04
ff
fe
04
10
ea
f7
05
02
f1
f4
e5
14
ff
e2
ff
fc
04
04
02
fd
03
00
1c
f2
04
0c
f1
22
01
f3
06
fb
0b
0a
ee
ff
14
ee
fb
07
00
fb
05
f5
10
00
01
fc
01
0f
03
fa
eb
0c
16
07
03
05
0b
fd
e2
f0
fe
f1
16
03
01
04
fc
db
fd
05
04
fe
11
e4
1e
fe
fb
fe
04
17
03
01
03
fb
fd
fd
04
0c
e3
06
fe
33
03
03
07
08
fb
27
02
01
ee
00
05
fd
e9
09
f9
02
07
f8
05
01
ff
fc
1e
03
0c
fe
f6
fb
fe
fd
fc
06
05
fd
02
0a
10
15
00
f8
fb
05
f3
f2
e7
0a
03
ce
fc
03
fa
fb
00
03
07
fe
20
fc
0d
0c
f4
1c
ff
f4
02
ff
01
0f
f8
09
08
f4
fe
fa
00
06
fa
eb
0d
02
00
02
05
03
08
eb
e3
03
06
fd
fa
fd
22
fe
e5
f1
03
f2
05
0a
fb
0f
01
e6
02
01
fd
05
05
e0
19
05
04
ee
fe
0b
fe
fb
05
fc
ff
06
06
f4
e5
fd
0a
2c
09
0e
fe
02
02
35
02
00
f6
06
04
fd
f0
01
f3
02
fe
00
04
fd
f7
06
06
05
05
fe
f1
05
0a
f2
fc
05
08
08
02
05
1c
14
04
f4
02
07
f8
fb
f6
fc
08
d0
04
02
fb
fc
fc
06
fd
f9
1a
05
09
12
ef
0d
00
fb
fe
fe
fe
1a
01
04
0b
f3
04
01
02
00
02
e8
11
00
fb
ff
01
04
07
ed
fa
fd
05
fb
fe
fd
1a
ff
dd
f0
01
fd
12
01
05
16
06
e4
09
e2
07
fc
00
e7
0f
ff
06
f5
0c
fb
01
04
fe
08
fd
ff
06
e9
ee
07
08
19
06
06
fc
ff
04
3c
ee
ea
fb
fd
06
06
e7
04
f3
ff
fb
ef
04
ff
fa
fb
fc
03
05
fc
dd
07
0c
eb
02
00
fe
fe
00
12
15
15
01
ef
03
00
f9
f9
ef
fd
fe
c7
06
ff
02
04
08
02
fb
02
1e
05
14
10
f5
16
03
f5
fc
01
fa
20
0b
01
06
fa
08
06
fb
ff
00
e4
14
08
07
04
fe
fe
04
ec
fd
fb
fb
05
00
07
12
fd
dc
09
fc
10
07
fd
01
0b
03
f1
fc
d5
fe
05
fa
f6
12
04
01
fb
09
fe
fe
07
fe
02
f2
fc
07
f0
fb
fd
1d
06
03
04
fc
01
fc
46
f8
d3
f5
fe
fd
fc
f0
03
f5
04
04
e0
01
ff
00
01
03
06
e8
04
d8
fb
03
f8
00
fc
09
07
f7
08
0d
17
03
ff
fb
05
fb
05
fe
ef
fe
d4
ff
f8
fc
07
ff
fa
06
06
1d
fb
13
10
f4
13
0a
fc
f8
fa
fa
16
ff
fb
0f
f2
07
07
05
01
04
e5
13
fc
01
00
fe
fd
02
ed
fe
00
fd
00
00
fd
07
00
e3
13
fd
1b
fc
fe
05
10
fd
f3
01
d5
01
06
ef
f0
0e
00
09
fc
0c
eb
07
08
fd
01
f5
f9
03
e1
f9
04
19
f0
f5
0c
fe
03
04
2c
0b
df
02
00
07
00
03
ff
f4
fe
02
d9
01
03
05
04
06
fb
f9
fd
de
fc
05
fd
08
01
04
07
fd
ff
0e
16
05
f9
fb
0c
ff
07
0a
02
ff
d9
f9
ff
05
fd
fe
00
01
02
16
fa
0b
0b
fb
12
09
f8
06
fd
fc
19
f9
fc
12
f6
04
05
ff
fb
01
f2
07
fb
02
02
fe
10
06
fb
00
08
02
07
00
08
00
07
e5
14
07
20
fa
f6
05
0f
08
fc
00
cc
fa
fe
f9
f7
0d
ff
ff
03
04
f5
02
ff
00
fd
f3
03
06
ed
08
fd
0c
e7
f6
fd
fc
02
fc
2b
06
e8
04
01
02
fb
09
08
04
fc
fe
de
00
ff
f9
ff
02
fa
ef
04
e7
fe
00
03
03
fc
08
04
fd
f9
06
0b
07
f8
00
06
02
1a
0b
09
05
e9
05
00
fb
fb
fc
fd
fb
fa
13
02
08
02
f7
11
05
fb
fe
05
07
12
ef
ff
05
fb
08
01
fd
00
fc
ed
0e
00
02
06
01
ff
0f
fb
0a
08
fc
fb
02
01
f4
fe
ec
16
fa
21
f7
03
05
fd
02
01
01
e7
06
01
f3
f9
fb
03
05
0a
0a
fa
07
fe
08
fb
e9
fc
ff
f1
0d
05
16
e7
f5
fb
02
fe
fb
18
06
e1
f7
03
fd
01
0b
0a
09
02
01
eb
08
00
07
f8
fc
02
fa
fd
f5
05
ff
0c
01
06
fe
05
07
fa
06
07
03
f9
02
09
fa
21
0d
03
07
f4
03
05
04
02
05
08
fb
02
1d
01
06
03
fc
19
0b
fe
fd
ff
00
09
f3
01
fe
f5
03
fc
01
07
02
fa
0d
05
01
06
ff
f8
0a
f1
09
f5
f3
fe
03
03
01
fb
ec
09
fb
15
08
00
02
05
0c
fb
fe
e9
05
08
ff
fb
f2
02
00
fa
11
09
06
01
fc
fc
f7
fb
ff
ee
14
00
11
e7
f8
02
05
03
ff
04
0b
ec
f6
02
02
04
11
05
f6
05
06
ed
fb
00
00
04
fc
03
fb
03
fe
fa
fd
f9
03
08
06
fb
02
f4
00
10
02
f1
05
04
fd
13
10
05
fe
f9
fc
fc
00
09
ff
fd
08
06
07
05
09
ff
fc
0b
07
fb
fa
07
00
0a
ff
02
00
fa
ff
02
06
fb
ff
00
08
03
08
02
0a
fb
0a
f9
08
01
f6
fc
02
03
fb
04
f9
05
05
11
00
ff
00
01
0e
03
05
f4
07
05
fe
fb
e9
03
03
04
06
f9
04
04
06
fd
fc
fd
ff
f2
0f
05
05
e1
02
08
06
0a
01
ef
00
f0
f5
fd
09
fb
0c
ff
fe
02
06
f0
07
fe
ff
00
fa
fa
fd
ff
fa
08
00
fb
09
00
07
00
03
f3
05
0f
01
f4
07
08
fd
16
14
ff
00
f4
fc
00
03
03
08
fd
02
01
0b
0d
07
f9
f5
02
00
01
fd
fa
ff
f9
06
05
ff
f8
ff
06
02
fa
08
08
08
05
ff
07
05
f5
fd
f4
1a
fa
f5
06
fc
02
02
ff
f8
03
fd
05
ff
fe
09
fc
13
fe
04
fe
fd
02
fd
ff
ee
05
02
01
fd
00
08
07
06
00
fc
04
04
f4
05
fa
08
f5
f7
0c
fc
0f
fe
e3
f7
f5
fe
07
ff
03
fb
fd
03
fd
05
ef
ff
05
03
fa
e9
06
05
07
02
07
f5
fa
05
09
01
fc
0d
fe
f7
01
03
ef
07
04
00
16
12
00
05
fc
00
fb
08
00
01
09
04
ff
04
06
05
f7
f6
fc
09
05
fd
07
01
f4
0c
fc
fc
fb
05
06
fe
05
fa
03
0d
fb
05
05
0a
f5
06
fb
10
f8
ed
ff
fc
01
05
fd
ff
02
03
01
00
f9
fb
f6
12
06
fd
f8
04
06
00
f4
f4
04
05
06
ff
00
fc
05
00
ff
06
fe
fb
f6
07
fe
04
fb
f5
0a
02
05
01
f0
fe
fa
fe
01
07
05
f8
00
00
01
fe
fe
fd
03
fe
01
ef
04
05
fd
06
fe
02
ff
fb
07
0c
fc
05
f5
f8
06
05
fa
02
03
05
09
19
06
07
fe
fa
04
08
00
09
fb
08
fb
f2
05
ff
fe
fe
f2
0a
08
07
02
00
f6
0a
01
fb
01
02
fe
00
06
08
0d
0a
fd
02
07
02
fd
09
01
0e
03
f9
fe
08
01
01
00
01
05
ff
07
fc
01
01
f3
10
04
06
00
03
01
02
02
f6
08
fe
fb
01
fc
04
ff
fd
06
06
07
08
f8
0d
fe
0a
fa
01
01
04
07
08
f1
fc
02
fe
01
fd
05
fb
0a
04
ff
08
05
fd
00
fa
09
ef
ff
07
fd
fb
03
fb
05
06
08
08
fe
0f
fb
ff
00
01
f4
06
05
0a
11
16
fb
05
07
fe
08
04
fe
fb
00
08
08
f8
fd
01
f9
fd
f1
07
13
08
fb
03
f0
fb
00
fc
02
04
06
06
00
09
0b
09
06
01
06
09
00
fd
02
04
03
00
04
00
09
05
08
fe
06
07
03
03
fb
00
f2
0e
01
03
fb
fb
03
fe
05
00
06
08
00
04
f9
ff
fb
06
04
05
fd
07
06
07
03
fd
05
fa
00
04
00
fa
f1
fc
00
fd
03
02
08
fe
02
fc
01
03
01
01
fe
06
ff
f6
fd
02
fd
fb
07
fb
02
fc
09
03
02
09
00
ef
02
03
00
fe
02
07
0b
0a
01
02
fe
07
fd
02
fc
08
02
fd
fc
03
fd
04
fa
f9
fb
04
09
ff
00
05
fe
fc
fd
00
fc
fe
05
fa
fc
fd
04
00
06
fb
05
fe
04
fb
03
06
f9
ff
fd
05
fd
fa
fa
ff
03
04
00
04
f7
08
03
02
09
03
05
04
02
fd
fb
05
08
02
ff
05
04
ff
04
fc
02
01
ff
fa
02
06
04
ff
06
ff
00
ff
ff
fe
f9
06
06
06
08
ff
00
fa
00
fb
06
fd
fd
ff
08
00
04
00
00
07
00
00
03
03
fe
ff
04
fd
fc
fb
06
f4
fd
09
07
05
01
fe
08
00
ff
03
fe
fe
02
fb
04
01
fe
06
03
fc
fa
03
01
00
f4
03
08
01
fe
04
fe
fc
06
04
fe
04
ff
fe
fc
06
02
fb
03
08
06
00
01
ff
fc
02
f9
01
fb
fd
04
fd
fd
02
02
06
ff
ff
01
06
01
0b
fe
07
08
04
fa
07
02
05
06
fc
02
05
fc
fa
08
ff
03
07
fd
03
ff
00
06
fa
0a
fb
ff
05
fe
05
f7
fe
fd
00
06
00
03
fd
09
04
06
01
01
02
04
03
03
fe
04
fa
04
f9
00
06
08
07
08
08
fa
04
00
02
04
0b
fe
fd
06
04
02
0c
06
ff
fc
ff
06
ff
01
05
00
09
fd
00
00
fb
fe
06
fb
05
05
ff
04
fc
fb
07
ff
fd
07
06
fa
fa
fd
06
fd
f8
03
00
01
0a
02
fd
fd
00
f9
00
07
04
fe
ff
02
06
fd
06
fe
05
fe
06
05
00
ff
07
08
06
03
ff
ff
00
00
07
fe
04
07
fb
03
01
06
ff
fd
03
f8
08
04
00
07
f9
03
fa
01
06
f7
05
fd
08
04
00
07
01
05
03
fd
ff
07
00
04
fc
00
fe
ff
06
fb
00
fc
04
08
fb
03
08
03
ff
05
fe
f8
0d
05
01
05
04
ff
09
05
08
04
00
06
00
05
06
07
06
09
01
f8
04
fa
04
f7
05
0c
07
fb
0a
04
00
fc
fe
06
fe
ff
08
05
03
01
fc
08
07
03
04
f5
03
03
07
f6
02
09
05
07
fd
fa
ff
f8
fb
fc
fa
f7
ff
03
03
02
fe
01
f9
ff
03
f9
fb
fd
fd
fe
02
fc
fe
01
04
fd
07
00
01
fe
06
05
04
03
01
fb
fc
fe
03
f8
07
00
02
fe
fa
06
08
09
f9
07
ff
06
08
02
08
06
f6
04
08
ff
ff
05
04
00
ff
01
fb
03
fe
fb
ff
f6
08
04
01
03
09
03
09
02
fe
fe
00
fc
07
fe
08
00
07
fd
01
fa
fd
03
fa
fd
03
02
fe
01
02
01
01
00
03
02
04
02
ff
07
01
01
03
01
ff
01
0a
00
04
fe
04
f4
02
06
fd
f9
fd
05
03
00
02
06
06
fa
07
09
0a
0a
fe
ff
02
fb
07
f9
06
01
fc
fb
ff
ff
fb
05
01
02
05
f9
03
f6
08
00
09
06
00
f9
00
fe
fb
02
00
04
05
03
07
07
fe
fd
02
06
fe
04
01
08
01
08
f5
03
02
07
fc
00
fc
01
02
01
fa
fc
00
03
f8
01
01
01
03
0a
00
03
0d
fb
08
08
08
fe
fe
fb
09
fe
00
07
f8
ff
fb
06
f9
f8
04
00
fc
fc
09
05
02
06
06
07
06
08
04
06
fc
fc
f9
fb
fc
01
08
fd
06
ff
0b
fb
02
07
08
01
03
fb
07
05
fc
08
fe
00
04
fc
0a
00
fd
0b
fd
02
00
05
02
fe
07
fe
fd
02
06
fd
07
01
06
fd
ff
01
08
fc
00
09
f9
03
06
fc
07
f8
fa
ff
06
04
03
fd
06
0b
04
ff
ff
01
05
02
ff
01
f6
06
ff
03
fd
06
00
fb
06
05
06
fa
fc
06
f6
f7
09
04
fb
fb
05
06
0e
fc
08
01
08
00
02
fd
01
03
06
07
02
fa
00
fb
06
f6
04
03
04
fd
07
04
02
09
03
fd
00
06
ff
01
08
fe
04
ff
fc
fe
0a
ff
07
01
fd
f3
02
03
02
fd
01
fd
0c
fe
03
ff
f8
ff
07
02
fd
09
ff
00
fc
ff
01
f8
01
04
06
ff
03
fc
04
01
07
fe
fe
fe
fc
fc
04
fc
03
02
00
05
08
04
07
f8
07
02
ff
03
08
05
0a
03
f5
04
07
0b
00
00
01
ff
fd
fd
08
fd
fc
05
f9
fb
08
02
fa
fb
08
fe
f9
02
04
00
01
04
0a
fd
ff
07
08
05
fc
04
fa
fd
ff
02
01
00
f8
03
fc
fe
fb
fe
05
06
04
06
09
05
fb
05
00
05
05
04
fb
07
02
05
fb
02
fc
fd
05
f8
02
00
fd
00
00
09
03
ff
fd
04
09
00
fa
fe
02
fa
ff
00
fd
03
02
09
fd
02
04
f8
fa
08
09
fe
02
07
05
02
08
fe
f9
02
01
fb
03
ff
ff
10
02
05
07
01
03
fb
05
02
06
06
03
02
ff
06
f6
03
01
0c
06
04
06
fb
00
fa
05
04
0a
07
05
fc
05
fc
ff
05
06
fc
03
fd
fd
fb
fa
fd
00
00
02
09
06
07
fa
09
01
05
06
03
ff
fb
01
fc
02
01
04
03
fc
fd
05
ff
08
03
00
fd
fb
03
07
05
00
03
fb
f9
fe
06
04
fe
02
ec
fa
fc
f7
fd
f7
fb
03
f9
12
02
08
08
ff
06
f3
04
fe
f7
fb
01
05
07
01
fc
03
fa
f1
05
05
fa
00
0b
02
fd
06
ff
f9
00
fa
f9
0c
05
03
14
0f
0b
03
00
fd
f9
fe
08
04
ff
03
fb
07
06
f2
02
04
12
fb
03
00
ff
02
fd
02
08
07
00
f9
fd
06
05
06
fd
01
f6
fd
f8
ff
03
09
05
fe
f1
02
03
02
fa
01
ff
00
fb
01
06
fb
04
02
f8
0c
04
fc
fe
fa
fd
05
fb
00
f9
06
ff
fc
fa
05
05
05
08
02
f6
09
fc
fd
0b
02
f5
ff
f4
e8
f2
f7
09
04
fb
0c
08
fb
04
03
00
fa
14
04
fa
f9
fe
02
0d
02
ff
07
ff
f3
fd
00
02
fc
01
06
08
09
fb
f1
09
02
00
fa
fa
08
1d
11
0d
ff
f0
fb
f8
0b
07
fc
fd
fc
07
fe
03
f3
08
04
13
04
03
08
fe
07
00
fd
08
0c
fc
07
02
fb
02
00
fd
fe
fc
03
fc
f5
fb
08
00
02
f6
f7
00
ff
ff
06
03
ff
fb
09
00
04
fd
08
f5
0c
06
f6
09
f9
03
fa
06
0b
fe
00
01
0c
fd
fc
06
fd
fd
ff
f9
09
08
04
02
00
f4
00
ef
e6
06
fb
00
05
ff
07
00
f7
02
04
f9
fd
0c
09
fd
f6
f6
08
12
ff
fd
00
f6
fe
08
fb
ff
fd
0f
ff
05
05
08
f5
04
ff
05
01
07
fb
1d
11
07
fb
f0
07
fc
10
12
ff
fb
00
ff
fe
04
eb
07
fe
07
fb
f8
07
ff
0d
fd
fd
09
09
fb
f6
0a
fd
01
0a
04
06
f8
0c
fd
ff
00
06
fe
00
f4
f4
fe
09
fc
07
fc
08
ff
07
ff
08
07
13
fb
0c
04
f7
0c
f9
f6
04
fe
02
03
fa
fd
07
f8
fe
03
07
fc
fb
f9
fd
04
05
fd
07
f2
12
f5
e0
04
0a
05
08
0f
04
08
f5
fc
fe
f3
10
16
00
fd
fb
ec
03
13
06
fe
0b
f4
10
00
02
f8
ff
0b
fa
02
04
05
fc
05
02
0b
f7
01
f1
19
0a
02
ff
fe
ff
fd
11
1f
09
08
ff
00
ff
fc
ee
fd
07
07
ff
ff
05
01
0a
03
f3
fa
01
02
01
06
fa
06
0a
06
07
f4
06
06
03
ec
fd
fe
00
f0
f4
f8
fc
f0
00
04
07
fa
fd
01
02
fd
10
f7
02
01
03
fc
fe
ee
fa
fe
07
01
fb
08
08
ec
06
06
05
05
fe
ff
fb
06
03
0a
05
fa
10
f6
e0
16
0e
01
00
05
07
fc
ec
f6
fc
ee
21
11
fe
f0
f2
e8
04
0b
03
02
05
f2
19
08
08
04
01
0f
fe
ff
08
06
f9
fb
06
02
f6
fd
f7
0f
06
06
04
05
03
00
06
1b
fb
05
08
00
fd
03
f4
fe
05
04
08
03
03
01
0b
00
fc
fa
07
03
fc
05
fa
02
06
09
04
f8
f9
09
f8
f8
fc
09
00
ef
ec
fe
03
ec
05
fc
06
fd
08
01
04
fd
1a
f5
05
01
fc
0d
05
f3
07
fd
0e
01
f6
04
0c
e6
00
06
fd
fa
02
fd
04
01
01
fb
01
0b
1a
ec
e6
14
0d
fb
fd
07
0a
fe
e3
f8
08
e5
27
0f
05
f0
f1
e2
03
0d
04
00
09
f4
18
fa
07
0d
01
16
01
00
ff
fb
ff
fd
fe
02
f4
fd
f9
18
03
12
06
0a
fc
07
01
17
f9
03
04
fb
fb
09
f9
07
04
08
fd
05
05
05
08
01
e7
06
08
05
fe
1b
fc
08
0f
ff
fd
f4
04
1d
f8
00
02
08
fe
f4
dc
f4
04
e0
fb
02
fa
fd
08
01
05
fb
1a
ff
fc
05
f8
0b
09
f4
08
05
13
04
ed
05
03
ec
fc
08
fe
00
07
fc
08
02
01
03
02
0a
0a
f7
f5
19
2d
09
03
fd
02
08
e2
eb
07
e2
2c
0b
fd
f8
fa
e5
05
1a
05
05
fb
ed
28
fe
02
10
05
1c
fb
fa
04
01
1b
05
00
00
de
ff
f6
21
0d
ff
02
01
fd
18
fc
02
e0
fb
fd
04
f4
0a
00
02
07
01
fe
fc
f9
05
08
06
ee
fc
ed
06
f2
1a
fc
fb
f9
05
ff
03
fb
2a
f7
04
fb
fd
eb
f8
dd
ec
05
d2
03
f9
ff
fc
01
fd
f9
01
1f
08
ec
0c
fb
0f
11
f9
fd
04
0a
06
fa
06
f9
f1
ff
00
00
fe
07
08
16
f9
06
07
05
11
0f
fb
f0
14
29
07
fd
f6
21
04
e4
f5
04
e4
1f
08
fd
fe
fe
de
05
0a
fd
04
f9
e0
32
05
02
07
04
16
09
07
08
06
0c
fa
05
e8
e6
05
f5
21
0a
fa
08
f9
00
29
fe
03
fe
03
fa
04
dd
fc
fa
07
fe
fc
fd
01
fa
04
04
08
fe
08
df
00
f7
15
fd
fd
f8
fa
01
02
05
26
03
f7
fd
0a
ec
03
ea
f2
00
bf
fe
04
03
08
07
f8
fe
fa
10
0f
f6
0a
f7
13
00
07
04
04
0b
0c
05
fd
01
f9
ff
fe
06
fa
fe
09
06
00
07
fd
ff
0c
13
fd
04
03
1a
01
08
f2
28
05
da
ff
fd
e4
f6
04
fa
fc
05
e1
ff
f2
fc
f9
f5
e1
24
03
02
f8
06
1e
06
01
fb
04
0b
02
01
e4
e2
06
fb
20
fb
03
fc
f6
04
47
fe
ee
fe
f9
01
08
de
0b
f4
fc
06
fe
06
f9
fe
01
fd
04
0a
03
db
07
f6
12
01
05
ea
ff
06
12
03
1c
f9
f5
04
03
ed
00
f4
ea
f9
b2
04
04
fb
03
fa
01
01
07
21
04
02
04
04
10
0a
06
03
fc
06
15
06
ff
05
f8
fb
fb
fb
fd
00
ec
04
fb
fd
02
fd
fe
13
02
0f
ff
17
02
07
e2
29
fa
f3
fe
08
fc
08
02
02
02
02
d4
03
d2
08
07
fc
eb
10
fd
03
fe
0f
0a
fe
05
06
fc
05
00
08
df
f2
04
07
15
f7
14
fb
ed
fb
41
e8
ea
fa
ff
04
06
d9
07
f9
02
04
f2
03
fb
f8
07
f6
08
06
06
d3
fc
01
f7
05
01
ee
02
04
0c
09
1b
00
06
fc
0b
0e
f1
01
01
07
c2
05
00
04
01
07
fc
05
ff
14
0b
03
07
02
0f
14
14
03
ff
fc
17
f9
fe
0a
f1
fc
06
05
fe
07
e8
10
fb
08
f9
00
f5
ff
f9
02
fe
ff
fb
fd
ce
24
08
eb
08
fa
f7
fc
f8
f9
09
fd
df
01
cf
03
f9
0a
e0
0c
fe
04
ec
1b
0b
ff
fe
05
06
fa
fd
ff
d2
f6
03
11
16
fc
1f
05
e0
05
52
f0
d5
f3
06
03
06
e0
0b
f0
08
ff
f2
00
fe
06
05
f5
09
02
fc
d4
05
fe
ea
05
fb
f1
fe
f5
0a
1a
1c
fa
06
01
05
12
01
0a
02
fc
c1
fa
f8
07
fe
01
f8
08
fe
1c
13
0b
0a
f5
19
0d
0a
06
03
02
1a
ff
03
0a
fa
01
fc
fe
fa
fd
dc
1c
ff
03
0a
fb
fd
fe
fa
ed
0d
04
09
ff
de
07
06
e8
17
fd
0f
ff
f8
fa
06
ee
d3
ff
c5
ff
f9
13
dc
02
00
fd
fd
1b
05
00
00
04
fe
e2
fc
fa
d9
f7
f7
27
fe
f2
06
06
f5
fc
4c
0c
e0
f9
03
fa
00
f3
00
03
04
fe
de
09
fd
ff
04
f7
fb
f2
01
df
fd
fd
f8
02
08
e7
02
03
fe
14
0d
f6
04
fa
0c
0e
08
05
11
08
d8
fd
fc
fe
06
fe
fa
fd
fb
31
18
09
05
08
1f
10
f5
fa
06
fd
17
ec
00
11
fc
02
fb
ff
f8
fd
e8
14
05
00
06
fe
0a
09
05
0b
13
00
03
fc
ef
ee
fc
d2
14
ff
21
ed
f7
05
0a
f9
e7
05
c7
05
07
fd
dd
05
fd
08
08
00
0a
05
fe
fa
fb
f6
fa
fe
e2
ef
06
2c
dd
f3
fc
fc
fb
ff
2e
05
de
f4
ff
ff
05
07
03
16
02
02
db
00
ff
00
01
02
fd
f8
f7
eb
01
fd
05
fa
fb
e4
fd
f8
fe
07
0d
0a
f9
ff
04
04
1e
1a
17
06
e2
fa
fd
05
07
01
09
03
fc
22
10
f8
f9
fc
20
16
f4
00
fc
08
1b
ef
fb
fb
f7
04
04
06
03
fa
e6
02
04
fb
05
fa
04
0d
f7
07
07
f4
02
02
09
e7
00
c0
19
01
2f
f0
f7
fd
07
f2
f7
fa
ce
07
fc
ff
e2
f1
04
01
fa
fd
fe
03
fb
06
fd
ee
05
05
e3
f3
f9
23
e1
f0
07
08
01
08
27
20
ea
f2
fe
fd
f8
0e
fe
0c
01
01
e0
02
01
ff
fc
fa
fc
02
fb
f1
ff
ff
00
03
00
f7
07
f7
fc
12
04
06
fc
fb
0a
02
1f
0d
0e
fd
e4
05
fc
06
fd
08
03
fd
03
1a
11
f3
fc
f8
0e
0b
fa
fb
06
0c
18
e8
fb
f8
eb
05
fb
02
fb
07
e5
09
fd
00
00
00
09
10
f4
0f
06
e7
fb
fe
05
f5
03
d3
06
08
35
eb
ec
03
fe
00
f1
fb
e6
fe
fa
f5
d8
e5
fc
00
f6
fc
fc
03
00
fe
01
ec
03
03
ee
ef
fb
20
cb
f5
04
fc
02
fe
0f
0a
ed
fd
06
03
fc
02
ff
00
fb
06
d4
fa
fe
fa
fc
07
f9
f8
03
03
01
0c
01
08
ff
03
03
05
04
10
fd
0c
f6
04
09
00
24
18
12
02
f1
fb
01
01
fa
03
01
00
fa
16
19
00
f4
00
15
0b
ee
03
03
07
13
f1
03
00
fe
fa
04
05
fd
00
f4
1a
02
04
ff
f9
00
07
fa
08
08
ed
08
06
04
f0
02
df
f8
06
2c
fb
ef
03
00
0a
f6
fc
ef
08
ff
ec
e5
e2
05
fd
ff
08
00
07
fa
fc
03
f1
02
02
f8
f6
fe
17
d6
f0
05
00
fe
04
fb
fd
ed
ef
08
fe
06
f5
05
05
02
fc
de
fe
ff
08
fd
01
08
fd
04
02
03
03
02
fa
09
01
08
02
0f
05
fa
03
ea
fa
03
06
1e
05
0c
05
f0
fd
fd
07
fd
05
08
08
02
16
1e
ff
f8
00
0e
1c
fa
01
fa
00
0f
f2
05
11
00
07
fb
03
fc
ff
ff
0e
f9
fc
01
01
f8
0e
f1
1b
02
dc
00
ff
04
f1
06
df
fb
06
15
f9
eb
01
f6
05
fb
06
f0
ff
08
f1
f8
eb
04
fc
fb
0b
00
09
fb
05
03
fe
fb
fc
f5
fd
07
11
da
f3
00
09
02
fe
f2
00
ec
fc
fa
05
06
09
01
00
04
fc
f2
05
ff
ff
01
f5
fe
f7
ff
03
03
f6
00
fc
01
07
fb
f5
04
07
04
00
f7
07
fe
08
0b
11
02
04
f3
fc
06
04
05
01
02
02
02
03
13
09
ff
05
06
1c
f7
fd
fa
08
02
f9
fe
0f
04
ff
05
fe
04
fe
fa
09
fb
02
ff
fc
f5
09
e5
19
01
de
fc
03
0a
fe
06
f6
09
fb
09
fd
f0
fb
fb
03
00
ff
f7
06
fc
f9
f9
e6
01
fe
06
13
03
08
fa
fe
fa
03
05
fe
f5
f9
fb
0f
f0
ec
fc
fc
0a
fd
ee
02
f0
f3
fe
05
fa
0b
f8
04
fd
fd
ee
05
ff
ff
03
ed
ff
fe
fd
ff
08
fa
ff
01
fe
02
05
fb
08
f5
fd
03
f3
00
fc
07
0f
10
04
ff
f6
05
04
08
01
05
fe
fd
fb
04
07
f6
01
f8
01
1d
12
ff
02
01
eb
f5
05
06
03
01
fc
02
08
07
ff
0b
06
01
08
03
f6
03
f4
15
0b
e3
09
fe
0f
02
fb
f7
0a
00
0c
02
f3
01
f8
06
f8
07
01
ff
fb
fb
f6
ee
fc
04
00
0e
f4
07
07
02
fe
ff
fa
fc
f4
04
fd
0f
f6
fa
07
00
0d
fc
e3
03
01
f3
03
fa
ff
08
03
fe
fe
08
02
00
08
02
fb
ea
fe
0b
01
0c
fd
fd
04
04
fd
03
ff
0b
f7
f4
fd
fd
f8
04
0a
0c
0b
15
04
fe
fd
07
fc
fc
03
07
fe
09
fe
06
08
03
04
ff
f5
09
0e
05
02
05
e5
f8
08
02
08
00
fb
08
07
09
ff
ff
08
01
03
06
ff
01
ff
0c
07
f0
ff
07
05
ff
03
00
ff
03
ff
ff
f3
07
f6
0f
ff
03
00
fd
ff
06
fe
f1
fa
06
03
03
f9
fd
ff
05
08
fb
02
03
06
ff
08
0a
f5
f7
05
fa
0a
09
f5
fe
fc
03
06
03
00
fe
08
06
04
08
f9
fd
fc
06
fd
f9
00
0c
08
05
04
f5
00
02
ff
01
fa
02
f5
fb
04
ff
01
02
fd
07
10
0d
09
07
08
ff
02
04
01
04
06
00
ff
04
fd
04
fb
04
f8
0c
07
06
08
04
f3
05
fe
04
01
ff
07
01
03
09
ff
03
07
fa
06
01
fb
06
08
02
05
ff
01
fd
07
ff
00
fb
06
fd
fa
01
fc
02
f6
0b
00
07
09
06
07
01
06
03
03
00
fc
fe
04
04
07
ff
fc
07
00
05
fe
06
08
06
02
f8
fb
02
07
05
f7
00
fa
04
00
fe
03
f3
fe
ff
04
fa
04
02
04
04
05
04
fc
03
08
fd
fa
fa
ff
02
05
06
07
0a
09
01
f7
03
02
02
01
09
fd
ff
02
05
fb
ff
05
06
00
fb
ff
ff
fe
fc
ff
05
fb
04
f7
07
00
fe
04
08
f6
ff
ff
05
0a
09
fb
01
fa
04
fe
04
ff
05
09
fc
f8
ff
fb
09
fe
ff
08
04
ff
03
08
0a
00
fb
00
f9
01
fc
05
09
fe
05
02
02
fb
00
01
02
04
05
06
fa
fd
01
ff
00
04
01
fd
fc
fa
06
07
05
05
f9
ff
ff
07
fc
00
ff
fc
04
08
00
07
09
08
03
fd
fe
05
fd
05
fb
06
f8
fb
fe
ff
fc
fe
05
08
07
fb
fb
fa
fe
02
01
fd
0c
03
02
05
06
02
06
06
fa
fe
fd
07
fc
fd
07
01
fe
01
03
01
fd
fc
ff
f6
ff
09
fd
fa
07
03
fd
ff
fa
fc
01
fe
06
08
fd
03
03
01
00
06
fc
03
05
f9
00
01
07
fa
07
fb
06
06
fe
02
05
00
fc
fc
00
06
01
0a
05
02
fb
08
fe
fb
09
07
fb
fe
00
04
fc
00
07
03
ff
00
05
ff
04
07
fb
fe
04
08
01
fc
05
fe
08
06
08
05
08
fd
03
05
f8
fa
fe
08
03
ff
fc
08
fc
03
08
fa
01
fa
f9
01
06
fe
fc
07
ff
fe
f6
fc
fe
fb
ff
03
09
fe
00
fc
ff
fe
04
01
01
01
00
01
fd
06
fc
05
03
f8
06
02
f7
02
ff
f9
09
05
04
00
fb
fe
06
08
07
fb
03
fa
ff
ff
ff
00
03
02
06
01
00
fe
02
06
fe
fb
ff
04
0b
fc
04
01
fc
03
05
00
04
04
00
04
07
08
04
00
04
fa
fa
01
00
03
07
07
04
fb
03
fc
05
02
fe
06
03
fd
02
fe
fc
fe
01
02
02
00
03
fe
02
07
fd
0b
fc
fc
07
fe
04
fd
00
fe
03
fb
08
08
01
fc
06
04
08
04
fc
04
07
00
f6
03
fe
00
03
01
09
05
01
fe
fc
fe
fe
05
01
07
03
fd
09
fa
f6
fa
08
f9
fe
f6
fd
0c
fb
06
fd
f8
03
03
fa
07
fe
05
01
04
fe
fc
fd
07
05
08
00
02
06
fe
08
fb
03
06
ff
fc
07
07
06
fb
fd
00
ff
03
08
04
ff
07
07
01
04
09
08
fc
fb
03
03
02
fb
ff
06
07
04
09
00
ff
05
04
01
02
fb
fe
01
fd
ff
09
fa
04
05
ff
0a
06
ff
fb
04
fe
fd
ff
01
ff
00
fe
02
08
f9
fd
0a
04
fb
02
fc
fe
ff
fd
01
fa
fc
fd
02
03
08
07
08
07
01
fb
0a
08
00
07
05
ff
02
fa
01
02
07
fe
f8
fa
fe
fe
fe
f6
fa
05
07
01
02
00
f9
00
04
09
fd
fb
06
fe
fe
03
00
00
fe
04
08
fd
fc
fd
06
f5
fc
04
fd
f9
ff
fd
0c
ff
04
fd
04
03
09
00
fd
04
fe
ff
fe
fc
03
06
05
fa
07
fb
00
fc
fe
01
fb
fd
02
fc
03
03
05
04
fd
00
01
05
04
ff
04
fd
05
00
fc
fb
01
08
ff
02
fb
06
04
02
fc
05
03
08
fe
04
fe
fc
fb
01
02
03
fd
fb
00
fd
04
fc
02
f9
07
00
fa
03
04
08
01
04
01
07
00
06
fd
05
06
05
01
05
ff
fa
fa
07
04
f5
f8
08
05
02
0a
fd
fc
fd
fe
05
05
ff
08
fc
09
f8
fb
07
02
09
ff
fb
04
02
fd
f9
ff
04
07
ff
07
02
ff
fc
fb
fb
02
fa
fc
02
03
09
00
04
ff
01
fd
fa
f8
05
07
f8
06
ff
07
01
fa
01
04
fe
fe
f7
04
fe
08
04
fc
04
ff
f9
03
00
08
09
fa
00
fc
07
0a
01
fb
fc
fc
02
fe
07
fc
fe
f9
00
fa
fc
07
01
03
02
00
07
fb
05
04
04
05
fd
ff
fc
ff
04
06
ff
03
00
07
ff
05
fa
05
fd
09
04
fc
fc
f9
00
04
fc
fe
02
f7
07
07
fb
05
04
fa
08
fa
00
fc
03
00
fe
06
ff
fd
03
05
04
04
f9
fc
f9
f9
fe
fa
06
00
05
05
04
fa
00
00
00
fc
0c
ff
fd
07
06
fd
02
08
01
0a
05
01
07
02
fd
02
fe
fb
fe
fc
fe
00
04
06
fc
02
ff
fd
0d
02
0b
03
f6
01
00
0a
0a
05
05
fa
fa
09
fd
ed
04
07
07
fa
05
fd
08
06
ff
fb
ff
ff
fa
05
ff
07
00
08
08
fe
fe
01
f8
ff
fc
06
08
ff
00
05
fd
fc
05
00
02
07
03
ff
00
fd
03
01
f5
09
fe
fa
00
f3
06
03
fd
06
fb
03
fd
07
00
fc
08
05
09
fc
fa
02
01
05
02
fc
e5
f6
f7
f5
fe
fb
06
07
0b
12
04
f8
09
08
01
02
0f
09
fd
05
fe
08
0c
07
ff
0e
fa
fb
fe
fe
0d
ff
06
fc
07
ff
ff
fc
ff
fe
08
04
01
fb
12
09
08
ff
fc
00
f5
07
02
ff
ff
01
05
05
00
f2
04
00
0e
03
08
05
fc
f7
02
f6
06
04
fc
05
fc
00
03
0c
03
02
fc
fb
f0
fa
08
07
01
00
f2
f8
f8
01
fc
fa
04
07
01
fd
06
05
03
0e
f4
ff
08
f9
fd
f5
00
02
fb
07
f4
fc
08
04
f8
fe
fd
fd
05
ff
f9
02
fc
08
04
01
e9
03
f1
ee
05
f8
02
fd
0f
0a
fe
f3
08
fa
08
08
1a
04
f3
f6
fa
fd
08
02
fe
02
fb
f7
06
08
09
0c
06
fb
00
0a
02
f8
fd
01
05
ff
fa
fa
0f
0c
0c
fe
ed
04
f7
11
10
ff
fe
fc
03
0b
fd
ef
fc
ff
0d
fc
05
08
08
f8
fd
fc
04
08
04
05
04
01
fc
02
ff
07
f6
01
fd
fa
01
fd
02
fd
ee
e9
f6
01
07
02
03
fd
08
06
fc
ff
fc
0c
fc
05
10
02
06
fc
ff
02
06
03
f2
02
06
0f
ef
08
fe
ff
fc
05
fb
07
05
00
09
00
ee
0f
fc
e0
0a
ff
07
01
04
06
07
eb
fe
fc
00
0d
0f
07
f9
ff
f1
fe
14
fb
00
00
f2
0d
fd
07
06
06
0a
fe
07
03
fb
f2
07
fe
08
f4
08
f2
0b
0b
07
fd
f9
04
fa
0c
0e
f7
04
fc
06
06
fe
e7
04
01
0d
02
02
fb
fb
02
fa
ed
04
fd
03
06
fa
06
fc
04
02
0a
fc
01
05
f8
f3
ff
01
f0
ee
f0
f0
06
08
fc
fd
fe
06
04
03
fc
ff
17
f8
fb
ff
fa
0c
06
f7
fc
fc
09
f2
fd
01
0d
ec
ff
fe
fb
08
00
01
06
03
04
07
04
fd
1c
f0
e0
1a
fa
fc
fb
15
01
00
f1
01
fe
00
1d
1c
fc
e3
f3
e8
fb
0d
09
06
f3
f7
06
04
04
07
03
08
fc
08
07
08
fe
02
07
13
f9
fb
e4
ff
0d
f7
ff
00
06
f3
fc
0e
fd
07
08
fd
f8
fd
f9
05
02
18
06
05
02
fd
02
00
db
05
fa
04
ff
08
fc
00
fd
fb
07
00
fa
0e
fb
ee
07
01
f7
e0
e8
e1
fa
00
fe
04
07
fe
fc
fe
03
04
1c
f5
01
fc
03
0d
ff
f2
ff
fb
0a
ef
ee
03
0b
e8
ff
fc
04
06
00
0b
05
02
06
05
f9
fa
1b
f4
db
23
08
07
03
0a
11
05
f5
f4
f9
0d
2b
1e
07
e3
ec
e6
fb
0c
07
00
e9
fd
16
fb
01
15
13
12
01
fd
08
fb
fa
06
fd
14
f4
08
dc
0e
13
01
03
03
02
f2
01
1a
f6
fc
03
fb
f3
01
ee
02
03
14
02
fa
04
fc
0e
fb
de
fb
04
08
ef
0a
06
fe
fc
00
0b
f3
02
14
f5
ff
02
06
f7
e4
df
e1
ff
f9
04
07
06
01
fd
fe
04
fa
1c
f8
03
fe
f9
0b
ff
e8
01
fa
09
f7
f5
06
0c
dc
fe
01
04
08
02
14
00
06
fb
00
f8
00
17
f5
dd
17
0f
07
fe
0a
02
04
e5
f0
08
fe
19
15
fa
e8
eb
da
00
12
04
ff
e7
f9
11
fc
fb
0d
0d
21
ff
02
0a
09
0a
02
fc
14
f0
05
d8
02
0b
f3
ff
0c
05
ff
f9
11
ec
03
fa
07
f6
05
eb
07
00
0d
01
02
06
fa
02
03
d7
03
03
03
f7
13
03
01
ef
fd
02
f4
f9
23
e3
ff
06
03
f7
e1
d2
cf
06
ef
f7
06
fa
fe
03
01
04
02
1b
f5
ee
0b
f5
24
02
f5
fc
05
05
fb
f3
06
16
e3
02
00
03
ff
fd
0d
09
fc
03
ff
03
f9
1b
f4
ed
08
17
03
ff
07
01
08
ed
f1
07
ee
0a
0f
06
f9
04
cd
05
0e
08
05
ec
f7
1c
04
07
0d
0e
2c
08
08
ff
02
17
07
04
00
fd
06
d1
0d
08
f1
fb
08
fd
04
f6
0a
f5
00
02
fb
ed
05
f1
05
ff
01
08
fc
fa
fd
07
ff
ed
07
ec
05
02
03
fd
01
ed
ff
02
00
f3
3f
e6
02
00
04
e5
f0
e0
dc
08
d9
fc
fc
00
04
03
05
02
fd
10
fb
ed
11
fb
1a
fa
03
01
07
14
08
09
05
1f
df
07
01
fd
06
fb
02
04
09
06
07
06
fb
21
03
02
06
24
07
fa
ff
14
04
ea
01
03
f6
00
0e
fb
f1
03
cc
03
0a
01
f9
cf
f0
2a
03
04
11
05
39
fb
03
fe
05
1f
fd
ff
f3
e5
08
e0
12
10
f0
05
f9
fc
0b
fd
06
fb
01
fd
04
dd
09
f1
fc
02
09
06
05
ff
fd
01
08
fa
fa
e5
fd
f3
13
fd
03
f2
fd
0f
f1
ef
29
fa
01
00
01
d5
f7
f6
db
01
de
02
00
08
04
fc
03
00
fe
16
00
f1
07
f4
17
ff
11
fb
02
0d
02
07
00
1b
e2
04
00
05
02
09
07
03
00
fd
08
fc
fc
28
15
1d
02
23
03
02
f1
21
08
e1
07
f8
ee
e1
14
06
fb
00
d0
f9
12
fd
03
db
f7
21
fd
fe
0e
fd
51
fd
fa
04
08
04
ff
09
ec
e5
01
fb
25
07
f2
03
e0
fa
29
fd
f2
ee
fe
fb
01
d1
03
05
fd
07
fb
03
f8
ff
fa
04
00
02
fe
e4
06
ed
22
fb
02
e3
07
f4
f9
f3
39
f4
18
fd
02
c8
00
f2
d8
02
dc
ff
f9
fc
03
03
03
ff
f9
09
f9
e9
02
f6
13
04
13
01
fe
06
ff
fc
fa
06
e7
04
fe
fd
fb
06
04
07
02
00
04
00
fe
30
14
1d
04
28
07
06
d6
17
04
00
00
f9
d2
d8
06
fc
fb
fd
e5
f8
01
06
01
f2
e7
20
05
fc
16
06
44
01
ff
06
05
fe
02
09
f6
01
fd
fa
2c
0d
fe
04
cf
fe
42
f6
ee
f9
03
fb
06
d2
fd
11
fa
01
f2
07
04
ff
01
01
fd
f8
04
d9
01
ed
0e
03
01
ce
03
01
f8
ef
2d
f2
0e
01
01
e9
19
0e
e4
07
eb
fa
f6
01
fd
01
06
05
fe
fb
ed
ee
08
00
0f
00
0d
ff
ff
01
fc
ff
07
03
f0
fc
fb
ff
ff
fb
06
06
ff
04
0c
01
02
1d
1b
09
fe
22
fb
ff
c8
0e
fd
e2
00
fd
cc
cc
06
fb
0a
05
f0
fd
f4
02
ff
18
d8
16
06
04
02
01
2c
fe
fc
05
ff
ee
01
01
ee
f2
04
00
1b
10
04
04
ce
fb
56
e7
e3
f9
ff
fd
02
ca
00
11
01
fc
ec
fc
ff
f9
04
07
06
f4
ff
ff
fa
ea
01
02
00
b5
fb
0c
f8
eb
0d
06
02
fb
0a
f2
2e
0d
f8
fd
ec
f9
fb
05
02
03
05
fa
fc
f7
fe
03
07
fa
10
ea
ec
01
00
0c
10
0b
fb
17
e0
ff
01
05
03
04
fb
04
fb
08
07
02
f5
21
14
ea
f4
1c
00
06
cf
e0
04
df
09
01
f5
d5
09
04
03
fe
f6
fd
dd
00
03
1b
e3
00
08
f7
fb
05
1e
05
03
03
03
e2
09
ff
e1
f6
03
08
25
15
03
05
e0
fd
62
f6
e6
f2
01
03
00
f9
0a
04
05
fc
00
06
08
05
01
fe
02
f8
f9
02
fb
ea
0a
04
fb
a9
08
02
ea
ee
03
0b
0a
f9
fd
fe
36
00
fa
09
f2
ff
fb
09
02
ff
fc
fe
f9
09
fe
fb
05
f8
0f
f4
dd
ff
02
ff
0a
0c
ff
11
eb
ff
fb
00
03
06
fb
fe
fb
fb
01
fb
f2
1c
07
fb
ef
0b
07
ff
ed
d4
fc
dc
fe
fe
23
ec
0a
06
fa
03
06
00
cf
09
fa
02
e6
e5
fa
fe
04
0b
03
01
07
fd
01
fa
fc
00
f0
fb
ff
0e
05
13
f1
02
fd
01
53
f7
f5
03
ff
02
05
0f
02
02
fb
03
02
fe
ff
fd
fb
f6
02
ee
00
fe
fb
fa
0b
06
fb
b7
01
10
03
f0
fa
07
09
ff
f8
f6
30
00
fe
07
f9
04
fc
fc
fd
06
fa
ff
fc
11
0d
dd
00
0d
09
f8
e0
01
fe
04
ff
08
06
00
eb
fb
fa
fc
00
02
10
eb
04
02
0e
07
ed
12
fd
fb
ee
f1
fd
01
0e
e8
fd
d6
05
fb
2b
eb
03
05
0a
01
0a
fb
c6
08
f9
f9
ed
db
00
05
ed
0b
02
fe
07
01
fa
f8
fb
02
f7
fd
ff
0c
f1
09
fa
01
09
ff
43
03
f2
fb
02
fb
01
11
01
ff
fb
fc
ef
fa
fe
f7
07
f8
fa
f8
04
15
fd
00
13
f8
fe
bc
fb
f4
ff
f2
fd
f4
00
fa
ff
ef
35
04
fb
fd
ff
f7
00
fe
07
07
ff
03
04
19
fd
dd
0a
fe
05
02
f0
ff
03
0f
ff
fc
03
f5
f3
04
01
01
02
f9
03
f9
ff
04
fe
07
fb
16
02
0e
0b
ef
08
fb
14
f2
fa
d5
fd
08
3e
ef
fd
04
ff
07
08
06
c0
fb
01
e3
fc
d0
ff
fd
f6
05
f4
05
03
02
fe
ff
03
08
f4
f2
02
1a
ca
fd
f9
08
07
06
11
0d
f7
f4
04
07
fa
01
05
16
fb
08
d3
05
fd
01
08
f0
03
08
fb
07
00
06
08
06
04
d2
07
0a
00
f0
eb
f1
f0
fe
fd
f6
38
0b
f6
06
f9
fd
04
04
05
06
01
02
fc
04
12
d6
f4
10
02
14
e3
fe
ff
10
02
fe
05
0d
ff
07
fb
06
02
fb
0f
01
05
fc
09
03
f2
08
f5
11
0a
da
06
01
11
ee
fe
e4
fb
04
30
e6
fd
ff
f8
0d
0b
05
d9
fa
fb
d9
fa
d7
fc
fb
03
0a
f4
07
02
0b
08
f6
fe
fb
f1
f1
00
15
c2
0c
07
fb
08
04
0b
fb
ee
ed
00
00
fb
06
fa
fd
f8
06
e1
fb
05
04
fd
e8
fb
02
04
0e
03
08
12
08
01
d6
03
fd
fe
f5
e6
f0
f4
03
03
fd
2a
0f
f0
05
f6
04
fc
07
fe
fc
08
01
03
10
0f
e4
fb
0a
fb
18
f2
fa
03
11
01
fc
04
0c
03
04
01
fd
fa
06
06
f1
02
02
06
03
fb
09
fb
0e
05
e1
08
fb
16
f0
fd
f9
fe
fe
1c
f4
02
fd
f9
ff
05
fc
e6
fe
05
f1
0b
dc
05
04
f5
1c
fb
04
fc
fe
05
05
fb
04
fe
f4
05
fe
ce
ff
04
02
0d
00
08
0b
f0
f5
07
06
03
08
04
08
fa
ff
f8
07
07
04
00
eb
fa
fc
05
15
07
04
0b
ff
08
f0
fb
f0
08
f7
ed
fd
ff
05
00
fb
14
08
f4
ff
fc
00
00
08
05
04
07
08
07
0a
11
e7
f3
0f
02
1a
ff
08
01
0b
0d
e8
02
0f
f8
fe
05
fd
03
ff
fd
ff
00
05
fc
03
f9
10
ff
11
0e
e0
fd
07
12
08
fd
08
01
09
fd
0b
f8
02
f4
08
f9
fa
eb
04
04
f7
10
e1
07
fa
fd
16
f2
03
01
ff
fb
05
05
03
01
f3
fc
06
da
ed
04
ff
13
04
f5
05
ef
f0
08
09
fd
02
00
0f
05
01
f0
02
01
fa
01
eb
05
f4
08
0e
fc
ff
0e
ff
fb
0d
fe
fb
09
f3
eb
01
fb
fb
07
0f
11
0d
f8
fc
f5
02
03
06
fc
04
fa
fd
03
07
0c
f6
f4
fe
f5
1e
0d
fd
fa
05
0f
e7
06
14
05
fb
03
04
05
fd
fb
08
02
08
00
fc
ee
01
f9
18
10
e8
09
fd
18
0e
04
01
03
fb
fc
09
fd
04
ed
0e
fe
06
f0
02
08
f2
11
eb
07
fe
03
ff
fd
fc
06
00
08
02
ff
04
04
fd
03
10
e5
fb
05
02
13
04
e4
ef
f9
f5
03
fd
04
00
ff
09
06
06
ef
fe
06
06
04
ea
06
fa
02
05
00
fc
02
01
09
0d
05
00
09
ee
f6
01
f6
ff
06
18
08
11
fa
05
f6
07
fd
ff
03
fe
fd
fb
04
01
0d
f4
04
ff
fa
1e
13
06
fe
f9
fd
f5
05
ff
17
01
03
03
fe
fc
11
0f
01
05
06
fe
fe
fe
fc
19
14
f4
03
04
0f
0b
03
0d
0a
fc
f4
0c
fd
05
f1
09
f9
06
01
04
06
fd
0b
fd
fc
02
08
ff
f6
05
fc
fb
08
f4
07
fe
07
ff
08
08
fb
fb
00
04
07
06
e3
f5
f7
f8
ff
04
fb
00
04
06
01
06
f8
09
fb
08
fb
f7
08
00
07
01
02
ee
fe
06
ff
0b
00
0f
0a
f5
f3
fb
f3
fb
08
12
16
14
02
fd
f7
08
08
ff
00
02
04
02
05
08
ff
f8
11
00
05
08
0e
03
01
fd
ed
f7
00
0a
12
00
02
07
ff
06
07
03
03
04
02
04
fa
06
01
06
09
fb
03
01
ff
ff
01
07
0a
fe
fb
07
f7
06
00
01
07
04
06
fb
f9
fa
09
f7
02
09
02
03
00
fd
07
fd
02
fb
01
fc
01
fb
02
fe
01
fe
f7
07
00
04
fe
f5
01
02
fd
08
fb
f4
fd
01
00
06
01
06
ff
fa
fd
02
fb
02
ff
fc
03
ef
04
05
fc
fe
05
0b
05
f5
ff
fb
fb
06
03
06
06
08
06
03
fb
01
fc
fe
03
fa
08
02
05
05
fd
04
09
03
ff
07
08
03
09
03
f7
01
09
fb
0a
06
fd
fc
04
09
fb
f9
fc
04
00
01
fa
06
f8
07
02
fd
02
fb
ff
01
01
0f
02
09
02
05
f9
fe
ff
09
07
04
06
fa
06
fc
03
fd
01
fe
fc
fc
f9
05
00
fd
06
fb
ff
02
f8
06
fb
08
0a
00
fc
06
06
02
f6
03
01
02
fa
08
00
02
07
06
04
02
02
08
fe
06
fe
f7
fa
04
03
ff
fb
02
01
fe
04
02
fb
fd
fd
00
01
03
fc
ff
07
08
08
02
00
04
fb
00
08
07
fb
06
00
02
fc
fa
05
01
01
ff
fe
07
03
08
05
09
03
f8
04
fe
0a
ff
07
04
01
04
05
04
09
05
09
08
f9
08
fb
03
00
fd
07
02
05
07
fb
05
f9
04
fe
fe
f9
08
ff
09
07
fe
fd
06
00
00
04
03
07
fd
ff
fc
00
06
01
fc
08
03
01
02
04
fe
fb
08
01
fd
fc
08
09
04
fb
fc
fd
09
fe
fe
08
05
fe
f7
fe
00
0a
00
ff
ff
fd
fc
09
02
02
05
03
fe
01
fd
02
03
fb
06
06
f7
fa
fe
fc
07
ff
07
07
0b
fa
09
ff
03
fa
01
fd
07
01
09
05
fe
f9
fa
fa
fd
02
02
00
08
fc
09
00
06
02
fb
03
fe
06
ff
06
00
fb
f8
fe
00
06
ff
f8
04
f8
04
fb
01
fe
fc
02
07
02
fe
fe
ff
03
03
f7
01
01
02
00
fc
fd
01
07
fc
fa
fb
fc
fb
ff
fb
04
09
fe
fe
fe
00
04
fa
02
fe
08
05
fe
f8
fa
fa
02
fc
fc
fe
06
03
fc
03
01
05
fc
00
00
06
0a
08
fc
fd
fa
04
04
fe
03
04
fc
ff
fd
fb
fb
04
02
ff
fa
03
fe
01
fd
01
fd
06
01
0a
fc
07
fa
08
06
06
06
fb
fc
01
05
fb
05
02
02
fc
02
f8
07
06
fa
04
04
fa
00
03
ff
07
08
00
06
02
04
fd
03
ff
0a
fe
03
00
fd
02
fa
06
07
07
08
00
02
03
07
07
fd
06
fb
09
fd
02
09
ff
fd
fb
fe
08
ff
08
02
fc
04
02
ff
01
00
08
fd
00
fb
02
03
05
03
05
0b
fe
05
03
fb
fd
fe
04
01
ff
fb
fb
fd
fe
fc
f8
fb
03
fe
08
08
03
08
fe
fa
03
01
06
fa
fe
05
05
08
02
fb
fc
07
f6
f7
02
03
04
03
03
08
03
02
fb
ff
04
05
00
03
fa
ff
09
05
f9
fb
fa
fc
fb
f6
ff
ff
fb
02
08
00
02
00
01
0a
fb
fd
05
05
02
05
01
fb
08
ff
fd
f7
ff
f9
ff
f3
01
04
00
01
02
04
0a
fa
07
fb
fb
ff
fc
06
09
01
09
08
ff
05
05
07
fd
08
fe
07
05
fa
03
00
fe
01
fc
06
06
fc
03
ff
01
00
fe
fe
04
fa
02
03
07
05
06
fc
00
01
07
02
05
fb
01
0b
fd
04
08
05
04
07
02
00
04
05
02
03
06
fc
06
05
f9
fb
f7
fc
fe
03
08
08
fd
01
05
fd
fc
06
07
00
02
05
04
ff
fc
06
fc
f9
08
06
04
fb
01
02
08
03
04
fb
f8
00
03
fd
ff
fe
fc
fd
03
fa
02
06
fb
ff
07
f8
fc
f7
fc
fc
fd
02
fb
05
fe
01
ff
fa
fc
fe
03
01
03
02
06
fe
00
06
08
00
04
fd
fe
fa
05
03
fd
f9
06
fc
01
04
03
ff
07
07
03
05
fe
08
00
09
ff
fa
05
05
02
07
ff
04
05
fd
08
04
f4
fb
fd
0a
02
01
fb
fe
f8
08
05
00
fe
03
00
03
07
fe
fc
07
04
02
fe
fd
03
08
fa
fd
04
05
02
03
fe
07
03
00
fd
ff
03
fe
06
ff
03
01
09
fd
fb
fe
00
01
08
05
01
03
fb
06
ff
01
fa
02
01
fb
01
03
00
05
fc
fe
0a
ed
fb
fd
f1
01
01
fb
fb
02
11
00
f9
05
02
02
fe
0a
01
fa
f6
fc
07
06
04
02
05
01
f9
01
fe
fe
08
07
fd
03
01
ff
f6
08
fc
07
04
fc
ff
0f
0a
05
01
fa
04
fe
00
0e
01
fe
fc
ff
00
0a
ec
05
fb
08
fd
00
06
03
07
02
03
00
03
fb
03
fd
fd
fb
05
05
fd
fe
0b
f1
00
fa
07
fd
f1
f2
f8
fb
fd
01
07
06
01
06
fa
01
fa
07
0c
fe
0e
07
05
04
fd
fb
02
08
fb
fb
f6
05
09
00
01
07
05
00
fd
00
fb
03
01
ff
04
e8
fa
f8
eb
06
fa
fc
08
0a
0b
02
f9
01
09
02
10
10
05
fc
f6
ff
fd
04
04
08
0c
06
f5
fc
05
0b
08
06
01
08
00
09
f7
01
fb
10
ff
ff
fa
05
12
10
ff
f7
05
f2
07
07
00
08
02
05
04
03
ea
ff
fc
0a
04
01
ff
f9
06
06
f4
01
fd
fe
03
06
fe
fe
16
fc
05
fe
01
ed
fd
ff
04
02
f0
ed
f9
f0
fe
04
01
ff
06
00
fa
03
02
07
0e
f5
0b
0c
0c
08
01
fb
02
06
03
fb
f1
fa
08
f3
08
08
fe
00
00
fb
fb
05
02
03
ff
f3
0c
f5
e9
08
f3
fa
06
0f
05
09
f5
fb
fe
09
07
15
fd
ea
fa
f7
fa
15
ff
04
fb
ff
fb
fd
fe
06
0d
09
ff
06
06
fc
fa
00
ff
1b
ee
ff
ef
0d
0f
ff
03
fd
fd
ed
09
12
fa
04
08
03
04
04
ee
fc
ff
0c
ff
fe
ff
00
fb
00
e8
fd
fe
05
10
06
fb
09
fe
07
02
fa
f5
f4
ed
fa
fe
09
e8
ea
e7
eb
fd
06
04
fe
fb
fb
00
fe
fb
03
0f
f3
f6
fd
08
04
04
fb
01
fe
08
01
f0
00
0b
e7
01
09
02
fe
fe
06
ff
fb
fc
fd
fe
ed
0a
f0
ed
16
f2
fb
02
0c
06
fe
f1
f8
fc
0c
1e
0d
03
f0
f7
f3
02
fd
03
fa
fc
02
09
06
00
01
0e
00
fc
08
00
fa
fa
fc
02
18
f2
fc
ed
f7
11
fe
07
f9
03
f0
07
18
03
07
05
05
fd
06
ef
08
fd
11
fd
00
ff
06
fe
fc
de
00
fa
03
00
fe
ff
00
08
ff
0a
00
fc
f9
f5
f1
06
06
f6
eb
e9
db
ff
06
f9
ff
02
fc
05
fe
01
06
0d
f2
01
f9
0c
07
04
f9
fb
03
ff
e9
f2
fb
0a
e3
fe
fa
04
01
fd
09
0c
04
01
fd
f6
00
1d
f5
e4
21
03
01
05
04
f5
05
f3
f2
07
0e
38
0a
00
dc
f0
e9
00
0a
08
03
ea
09
23
fb
05
21
0b
10
fc
fb
00
fd
f6
01
07
23
eb
04
dc
f8
09
f3
fb
fe
fd
eb
ff
02
f3
03
02
03
e7
fe
fe
04
fe
00
fa
04
01
fd
15
fd
d1
fe
f7
fe
ef
0b
08
ff
f4
02
09
04
01
0b
f0
f1
07
fb
00
f0
e0
da
fe
04
03
f7
fc
fd
09
f8
02
04
13
f9
eb
04
10
17
04
f2
01
05
07
f2
fa
01
06
ef
03
07
ff
f9
02
12
02
03
fd
fd
fc
fa
28
02
e0
0e
fb
fe
fa
0f
fc
fd
01
ed
05
1f
19
0b
ff
dd
ee
d8
fb
0c
fe
05
e1
11
0f
fe
05
0e
0f
19
08
fa
fc
fc
0a
ff
02
16
e8
07
d1
fc
03
eb
07
09
00
f5
ff
07
fe
f9
00
00
f0
07
fd
07
fe
0b
06
03
fe
f9
fb
ff
d8
fc
f7
02
04
00
06
fb
fa
fc
10
f4
f5
1a
ee
fd
fb
03
ff
eb
de
da
03
10
f8
04
fe
fc
fd
06
08
f8
13
05
f7
f7
f8
14
f9
fa
08
05
00
f2
f8
07
15
ec
ff
fb
06
06
06
0e
f8
09
04
02
05
09
23
02
eb
12
07
00
fd
0e
f6
01
f8
fc
07
08
09
0e
fe
e8
fa
db
fd
0f
ff
04
dd
11
1c
f8
ff
0c
13
25
07
02
fd
04
16
08
fa
20
f0
fe
cc
f9
02
ed
fa
1f
05
fd
f6
00
fb
05
01
fb
f5
05
0c
fc
01
07
03
fa
f9
07
08
02
dc
05
fd
fc
0c
fd
06
03
04
ff
13
01
f1
42
e7
00
ff
03
ed
ed
ea
dd
fc
05
05
03
09
08
03
03
06
fe
13
03
f5
07
f7
0d
fc
0e
fa
ff
11
03
fa
04
2f
e8
ff
05
00
fd
05
0e
ec
fd
01
fe
f9
08
29
1a
10
14
1b
03
04
19
f5
ff
ea
fd
08
f4
f2
02
f9
00
f9
c7
fa
12
fe
f7
df
0a
28
fb
fc
05
04
30
fb
f8
04
02
1c
fc
09
19
ec
06
d0
ff
fa
eb
fd
0b
f7
f1
09
0d
f8
05
03
04
e5
fe
0b
fe
02
ed
07
f8
03
ff
0b
fe
fc
01
fe
07
08
05
fb
fc
14
07
ff
f1
f1
3e
e1
04
ff
01
d7
f7
f2
ed
03
11
03
03
00
04
07
fc
00
07
01
ef
dd
f3
fa
12
fe
16
01
03
08
05
f7
fd
27
e8
03
fd
ff
06
08
fc
01
00
06
01
01
06
2f
0f
1f
03
16
fc
01
08
ff
02
ec
f7
fe
fd
d6
09
05
00
02
e7
01
1c
00
f6
c4
09
16
fa
f8
08
0e
42
fc
00
0a
fe
0a
01
06
1e
e0
fa
d8
0a
0e
f2
ff
f3
01
fe
04
0e
f4
fe
03
fc
d2
01
0d
fe
05
ee
fe
fd
03
00
0e
fb
03
fe
0b
fd
f1
00
f9
03
03
07
fc
ee
ef
3a
f2
02
02
07
cf
03
00
dd
08
26
03
f8
04
05
01
fc
fb
fb
0c
f5
ec
08
06
1f
f4
14
00
03
fe
01
00
01
25
f5
02
00
fc
fb
06
fc
ec
09
01
0d
f8
0d
35
15
1b
fe
18
05
05
d8
0d
fb
05
f3
fc
df
d1
0c
fe
15
f7
f5
fc
3b
00
f7
d3
07
0a
01
fc
0e
17
42
08
01
fd
fb
ff
00
02
25
d1
fa
e9
24
05
07
fb
ca
f8
0a
04
00
f9
fe
fd
fa
cb
03
11
01
03
fd
08
06
fe
06
14
f9
02
07
09
04
e7
12
02
08
ee
fc
e7
01
ea
2a
f9
0f
00
01
cd
0c
15
ef
ff
30
01
03
04
07
06
04
f9
fa
f3
f7
de
02
01
16
04
fb
fc
00
ff
07
fc
08
29
f8
fd
08
02
fe
05
12
02
04
fe
01
f8
07
32
0f
12
e9
1d
fa
01
cd
21
01
f9
0c
fb
ae
d2
0c
fe
14
f8
1a
f9
2d
00
fa
ff
f9
fd
fa
02
02
12
51
f8
07
fd
04
e8
07
f8
23
f0
04
10
23
02
09
05
c8
02
04
0d
ea
ef
04
fa
05
c4
09
01
02
06
ee
fb
fe
fc
01
0b
04
04
fa
00
02
dd
2c
fd
fd
d8
fa
f0
e5
e6
13
fc
0c
fa
06
f3
31
10
eb
05
1f
fc
fa
ff
fb
fd
05
ff
fb
f4
e0
ed
1e
e9
27
f5
01
06
fa
0b
ed
f9
04
2b
f3
ff
fc
ff
04
07
06
05
01
fd
02
f9
0c
2f
1e
fa
dc
31
fb
03
cb
f0
f7
ee
fc
02
a4
d8
0b
02
1f
1c
26
fd
13
00
08
17
ef
f0
fb
fa
04
00
30
f8
06
fd
fd
f8
06
fe
27
ef
ff
1b
34
0c
ff
fc
cb
fc
2b
01
f1
ed
01
05
00
bb
00
12
fd
06
f2
fc
fb
fc
fd
06
01
ed
f7
fb
04
f2
14
fd
02
b5
05
00
e7
e7
04
10
04
fa
01
ea
41
0a
ef
fe
0b
05
03
02
06
fa
01
02
05
e0
f8
ea
19
f5
07
e2
f9
01
01
0c
08
24
04
1c
fd
f7
ff
fb
fd
06
17
f1
04
fa
06
01
07
33
15
e7
d8
22
fb
05
f2
de
fc
02
0f
f7
cc
de
04
fb
09
0c
34
05
e9
fa
fe
19
f7
ea
fd
06
00
11
22
02
ff
05
f8
f9
fd
02
1e
04
fc
18
3e
11
e3
f9
e5
03
4b
fb
f1
e2
fb
fd
06
f7
08
0c
fc
ff
f7
01
04
fb
04
fb
fe
ef
01
f5
ff
e8
1a
04
04
a7
fe
fb
fb
d5
e9
03
08
fb
f9
ee
47
fc
f9
fc
0a
f8
fe
02
06
ff
05
fd
02
f1
fe
e0
13
04
00
f4
f8
04
fc
09
f7
1e
03
19
03
00
04
06
04
f8
23
e9
04
fe
04
fd
00
27
11
04
de
05
05
fe
04
d0
f8
ed
06
03
19
f8
16
07
f2
13
32
f9
ca
01
fc
15
0f
d3
ff
02
03
1a
ec
ff
03
01
fa
ff
08
06
10
09
fb
0b
1e
19
f2
fa
0a
f7
53
f9
f3
01
fc
01
05
0f
02
11
00
03
06
fb
02
05
05
ea
fd
f4
f8
02
00
09
1a
03
f9
ae
00
03
04
df
cc
fb
18
00
ff
f1
3d
f5
01
04
07
fc
04
ff
fb
fd
02
02
02
ec
01
db
01
fc
f1
f6
0a
00
fc
04
fb
0f
06
15
f1
07
fb
01
f7
fd
1f
d5
fa
ff
fd
fd
01
28
18
00
f3
05
f7
06
1a
d2
04
eb
fe
ff
41
f2
0f
08
f8
12
2d
fb
bb
06
06
f5
11
ce
00
fe
08
1d
ef
01
ff
fb
fd
1b
03
f9
19
01
07
06
f5
0d
f8
ff
17
03
58
08
f8
fb
f9
fd
f8
06
f9
10
fc
03
de
03
fc
fc
fd
f0
fe
fb
02
03
06
0b
17
fa
06
c1
03
fe
0f
de
d4
03
04
fd
f8
ec
40
fb
fb
07
f6
fe
02
06
06
08
00
02
02
04
13
d4
f6
18
f4
05
ef
f8
03
01
fb
0d
02
09
f0
08
fd
05
02
fe
20
d9
01
09
02
02
f3
23
01
07
f5
eb
01
fb
13
df
06
e5
03
06
57
e3
04
04
fe
0a
1a
fe
b8
fa
fb
dc
11
d4
02
02
05
25
e0
06
fb
03
00
04
fe
ff
07
03
02
0b
c9
12
fa
fd
0b
04
32
0d
04
f4
fb
00
fe
02
f6
12
f7
04
db
02
04
07
04
ec
ff
06
00
1e
05
07
1f
04
fe
c1
00
f8
fc
ed
e3
f3
01
fa
06
e6
3a
01
ed
00
fe
fa
fb
ff
04
00
01
07
06
08
08
d3
ff
13
01
13
ea
04
08
02
fa
fb
fa
12
06
07
00
fe
04
02
13
ef
07
04
04
fb
e9
10
f9
0b
00
de
fc
00
16
ef
01
fc
04
fd
2c
ef
fc
00
f2
0a
11
08
c7
06
03
e5
0b
d5
fb
07
ff
19
e8
ff
fb
08
09
0e
ff
fe
06
07
fb
0b
bf
03
f6
fb
fd
03
17
15
f1
f0
02
09
f7
07
fd
fe
fb
07
ea
09
02
08
fc
ec
00
12
04
19
08
06
19
03
fe
d0
01
ff
00
e1
e1
fa
00
08
06
fb
3b
0b
f8
06
01
00
fb
02
08
00
08
09
ff
05
03
dd
fe
1a
fa
0a
f9
04
02
0f
fd
f6
03
0e
f0
fa
04
05
07
00
02
e6
08
05
02
fd
f5
02
0c
0b
0d
e4
fb
05
0e
f8
fa
0d
fc
fc
04
fa
f6
04
f7
01
18
05
d8
04
01
e6
14
db
ff
05
fa
1c
ec
03
01
00
00
14
00
fd
0e
00
fe
0a
ca
01
01
06
02
07
0e
07
00
f5
fe
02
07
01
fd
12
01
08
fc
ff
00
00
06
f1
fe
0d
02
25
fd
07
14
ff
fb
e0
fb
fe
05
f2
e0
03
fa
ff
02
14
23
fd
f5
fd
f7
08
fb
01
01
fd
ff
fe
00
03
0c
e4
f8
0e
fb
14
09
fe
08
03
1a
f6
fe
0f
fc
06
06
06
01
fd
07
ee
01
fb
05
06
fd
fb
fd
0e
13
db
fe
08
14
00
06
18
02
00
f5
0d
f9
fb
ed
08
0d
08
e1
07
f9
f9
25
df
00
fb
f7
22
fa
fa
fa
02
fb
12
06
01
04
fd
00
07
d3
fa
fd
01
04
03
01
0a
f1
f5
ff
02
05
06
f7
0f
04
fd
f2
07
09
04
fe
ed
fb
fb
04
14
03
01
ff
ff
02
f9
fd
fc
0e
fe
d9
f5
ff
02
07
16
0b
0c
f5
05
f5
08
03
01
08
07
08
fc
00
07
14
ee
ff
0c
fb
1b
08
07
02
04
18
e3
02
14
08
04
01
03
02
09
0b
01
09
04
fd
03
fc
f5
00
19
13
ea
02
ff
19
0b
01
1a
09
08
f0
04
04
fb
ec
11
03
fa
e1
02
05
e8
27
db
00
fa
0f
09
eb
06
ff
02
04
0d
06
fe
05
f7
09
06
e2
f6
00
04
01
02
eb
ed
f4
f6
fb
04
05
01
03
17
07
06
f3
00
01
06
fb
e1
fa
f5
03
ff
04
00
f7
05
04
01
fe
0a
14
e8
e9
08
f5
fc
09
0d
09
0f
f2
07
f4
fe
fc
07
03
06
04
02
00
fa
16
f3
00
08
f6
18
09
07
07
03
0d
ef
05
0f
18
04
fe
05
08
fd
0d
0a
ff
fd
fe
0a
02
02
0a
18
1a
f1
03
02
0b
0c
ff
14
15
fc
fa
0a
fe
f9
f2
16
f9
ff
eb
fa
07
f7
11
f4
fb
fd
06
f3
f6
fe
05
fa
fc
fc
04
fe
07
f7
06
04
ed
fa
02
fc
10
fc
e8
ee
f0
ef
06
06
ff
ff
07
0b
fd
08
fd
08
fa
02
fd
f3
00
f2
04
f5
fe
ef
fc
fb
07
09
ff
13
08
ee
f3
f7
f2
fc
03
07
04
11
f5
fe
f3
03
fc
07
08
fa
04
09
ff
f6
10
ff
07
fe
ff
0a
08
05
fa
03
08
fb
fc
03
15
06
07
fe
01
05
0c
09
03
ff
ff
ff
fc
fd
fd
0d
0b
f5
05
fd
00
01
05
09
0f
06
f7
06
f7
05
f8
ff
00
fa
fd
03
04
f6
09
f8
ff
08
08
fc
01
01
fe
fb
09
ff
fe
01
08
f4
08
0a
f7
f7
01
fd
09
fe
f8
fc
f5
fa
05
01
06
fc
09
04
06
fc
fd
fa
fc
05
06
00
01
fe
fa
f8
fb
ec
ff
fb
08
01
05
fe
08
f9
00
02
fc
03
02
08
0d
0b
07
06
fd
05
04
fa
03
fc
fe
09
01
04
ff
01
0f
f7
09
0d
0e
08
06
06
fd
fb
08
fe
05
03
04
00
fe
fd
fe
fb
07
07
06
fe
02
08
fc
05
04
05
fc
04
fb
fc
08
06
04
04
ff
ff
f6
fd
05
fe
fb
00
09
06
04
04
01
f9
08
fb
02
04
04
06
05
05
05
07
08
04
fd
03
02
05
06
ff
00
02
00
00
f8
02
02
fb
fe
02
01
03
02
00
08
02
05
03
06
fb
fe
00
06
ff
fb
00
ff
02
fb
02
02
fd
06
fe
09
fd
fc
ff
fc
ff
07
06
00
0c
04
fd
04
fb
ff
06
fc
02
03
08
02
f8
fc
fe
02
ff
fa
05
02
01
04
00
01
fa
07
06
08
fa
08
05
fa
01
fe
04
05
03
08
fc
00
fc
f8
fd
fc
ff
ff
ff
00
ff
fe
04
02
01
04
fa
fc
00
fa
05
0a
02
00
ff
fc
03
fc
07
00
09
f9
fc
03
09
03
08
08
04
fc
04
f8
00
02
01
02
fb
ff
fd
07
fd
05
ff
ff
06
07
01
08
08
09
02
00
00
03
07
05
06
04
fb
fe
02
02
fb
05
ff
fd
04
fd
06
07
f9
05
fe
fc
0b
02
06
07
04
08
05
fd
05
09
02
fc
00
fa
01
04
03
fc
fd
00
04
04
f9
f6
04
ff
04
fc
00
f9
04
fb
f9
00
05
05
08
fe
02
04
fe
00
fa
05
0a
fa
fc
fb
09
f8
06
08
ff
08
fe
07
00
f9
fd
05
02
02
00
09
06
fe
02
06
fd
06
fc
02
fc
07
07
fe
fb
fc
04
07
08
01
02
ff
fd
ff
01
07
03
fd
04
08
fd
02
02
fd
02
05
fc
01
fc
06
00
05
ff
05
02
0a
01
ff
fe
fe
f6
fc
fe
02
05
00
fd
ff
02
fa
08
fa
fd
fc
fe
04
05
05
01
00
fd
02
00
03
06
00
00
fa
fb
03
fd
04
fc
08
03
fd
fa
03
fe
f5
00
03
ff
04
00
06
f7
fc
fb
09
fe
00
fd
08
06
fd
00
02
07
fe
05
04
00
fe
0b
f3
04
04
01
ff
fe
fc
04
fb
07
fd
fd
fd
fa
06
06
08
fc
05
03
06
ff
fa
fa
fe
08
01
fc
f9
fd
05
02
ff
fc
ff
fc
00
fe
07
01
07
04
07
fe
fc
06
f7
00
fb
0b
fe
04
00
08
02
03
01
08
0c
ff
03
01
fb
ff
06
06
03
01
fe
f9
f9
fe
fa
03
fd
fd
01
fa
f6
ff
09
02
01
fe
09
08
ff
02
00
06
04
08
00
ff
ff
07
08
01
03
fa
02
f9
f5
01
0b
fb
02
ff
fb
ff
fa
01
06
09
05
08
fe
fd
f9
00
03
08
fd
06
ff
fb
f8
01
f4
00
fa
ff
ff
05
09
0a
fa
07
fe
fd
04
fd
03
fd
fe
06
07
fc
00
ff
fe
03
02
05
fe
07
fc
05
fe
05
fc
01
02
fb
f8
ff
fb
fd
07
fe
fd
09
fb
fe
03
fb
03
03
fc
01
08
04
0a
ff
fe
03
0e
fc
fc
fb
02
03
07
08
01
fd
03
09
02
fc
fd
06
03
fb
02
f8
f6
02
02
f9
06
02
03
0a
ff
02
fd
04
01
fc
02
ff
fc
06
01
04
f7
fd
04
ff
fd
fd
04
fa
fd
03
f7
06
ff
ff
04
08
03
03
fc
09
f8
f6
ff
01
fc
03
f5
fe
f9
f9
fb
fb
01
06
07
08
08
ff
03
fb
05
01
04
fa
f8
01
02
04
01
06
02
08
00
fb
00
01
fe
03
f6
00
fd
fe
fc
02
fb
fb
05
0a
ff
01
00
0c
05
01
03
00
01
02
09
0b
02
fe
07
05
fd
f5
07
fd
0c
08
02
fb
02
fc
03
fc
fd
01
08
00
fe
fd
fc
fb
08
ff
04
ff
f4
08
06
ff
04
fd
05
fd
fa
08
02
00
fd
09
fe
05
02
ff
ff
07
ff
03
fa
09
fd
f5
06
04
08
00
00
f8
fe
fd
05
fb
07
01
fd
03
01
01
fa
fd
01
09
f2
f9
f8
f8
f6
f5
01
06
fd
0d
04
f9
fc
00
0a
03
05
00
00
fa
ff
fe
15
04
fc
03
fd
05
06
03
07
05
03
08
00
02
00
f8
fc
fe
0c
0a
07
fe
06
0d
09
06
f6
06
fa
07
11
02
09
07
04
0c
05
ea
01
00
0c
01
07
fe
01
00
02
f8
00
02
fe
02
00
ff
04
02
07
01
f7
09
ed
00
05
02
02
ef
f4
fa
fb
01
01
03
04
03
03
ff
ff
00
06
0b
f5
10
01
0b
02
ee
fb
06
06
fe
fb
01
08
03
fa
06
fd
01
fe
fd
fa
00
06
05
00
00
ed
fb
f5
f0
05
fd
06
ff
0c
04
fe
fd
ff
02
14
13
13
fc
fa
fa
ee
fb
0d
01
05
09
ff
f9
ff
03
04
05
01
01
ff
05
00
fc
00
fd
1a
f5
fb
fd
08
05
00
00
02
08
f3
03
1b
fe
fe
fc
ff
04
04
ea
08
fe
16
fd
01
03
05
fc
04
eb
01
03
04
10
ff
09
fc
0b
ff
ff
fc
ff
ef
fe
f8
00
00
f6
ea
f0
e9
04
0a
fd
fa
fc
02
fb
02
05
ff
13
fc
fd
f7
0f
07
f9
fc
ff
ff
fe
f3
fd
fe
02
fb
00
07
fc
05
fc
03
f9
00
ff
02
fd
f7
fc
01
e3
06
fb
08
04
01
fa
fc
f8
ed
08
06
13
0c
fc
ee
f9
ed
06
ff
06
02
fd
05
09
fe
08
f8
fd
01
fc
04
f9
03
08
ff
06
18
e9
fe
f1
00
08
fc
02
00
07
f7
fc
18
fc
fb
00
ff
01
09
f4
03
fa
11
f9
fb
01
f8
05
06
e1
08
fa
07
10
f8
00
02
f1
fa
05
08
02
f7
fd
f6
02
02
f2
ee
ea
de
fb
08
06
04
05
04
fc
fc
07
ff
11
01
fe
f2
17
07
01
04
fd
fc
02
f4
02
02
02
e5
fe
fe
04
fd
07
12
f8
03
06
07
f3
f5
0c
fe
e6
11
01
fc
02
05
f8
fc
f9
e8
06
18
1d
0b
01
ea
ee
f2
ff
f9
00
fe
eb
11
06
03
03
05
07
fa
07
fa
fa
fe
fa
07
fb
34
e7
fc
e9
f2
13
ea
01
03
fd
ed
f6
15
14
03
08
fe
f6
fd
f3
fc
06
07
01
fd
fc
ff
04
fb
c9
06
04
08
17
fc
03
09
f9
08
03
07
00
fc
f1
f3
fd
07
f5
e6
e0
d8
fb
fc
03
fa
05
04
fc
fc
ff
fd
05
04
fe
fb
21
12
fd
ed
05
04
04
f7
05
00
17
de
06
fe
fe
00
06
17
01
fd
01
08
03
07
12
fd
e0
04
02
fd
ff
fb
e8
04
f6
e5
02
1a
22
fe
fc
e5
f6
e3
05
0b
fb
03
e0
0d
16
08
05
18
0f
10
fd
fe
06
ff
04
fa
fc
25
e8
00
da
e5
15
e5
ff
03
01
f7
f0
15
08
05
fb
f8
f4
01
fb
04
fb
05
01
07
05
00
01
fe
c8
fd
06
01
1b
ff
03
04
e4
06
10
f6
ef
19
f3
ff
00
fd
04
e7
eb
d3
05
0e
f7
ff
fa
fc
06
02
09
f8
12
f8
e0
f7
19
15
f9
f1
08
fe
07
ef
06
fe
04
f2
fe
06
05
05
03
22
00
02
fb
fe
ff
10
1f
0a
de
0b
0b
fe
02
0b
e4
fa
f7
eb
fb
22
25
04
07
ee
02
dc
f9
fc
05
07
ee
0e
13
02
01
1b
12
0c
fb
06
07
02
11
00
04
26
e0
05
e6
ec
fb
ea
03
1a
f7
f0
f1
0f
0b
06
f9
00
0c
03
00
ff
06
07
05
ff
01
fb
01
fc
cd
05
ff
fb
22
0e
01
fc
f7
fa
ff
fd
f3
20
fc
01
03
03
03
f0
f1
e9
fa
08
f7
06
fd
fc
01
f8
07
fb
05
02
e4
f1
02
14
01
02
02
02
00
01
00
fe
06
f6
03
07
fb
fc
fa
18
ed
07
06
0c
fa
0e
1c
11
f4
04
14
03
03
14
d9
ff
e5
e2
fb
09
0a
fe
05
08
00
dc
fa
23
fb
01
ed
05
17
02
fc
03
0b
23
04
03
fd
03
17
fe
03
2f
e0
03
ed
f5
fa
e6
fc
29
02
ec
f4
10
fc
01
fd
08
ff
00
0c
00
04
f5
08
08
05
fd
0f
ff
ea
08
0b
04
18
00
05
fe
ff
fb
f3
fd
03
28
08
00
05
fe
ff
f0
eb
ee
06
25
f9
fe
02
fa
ff
fa
06
08
04
07
e4
fc
0c
22
f6
08
01
02
0a
0e
f4
09
19
ff
ff
fc
fd
fe
ff
fe
fb
fc
07
02
00
18
1a
19
2b
14
17
fd
00
26
d8
03
f2
e0
03
0d
da
f7
f9
07
02
e5
01
10
fb
fd
db
0f
12
01
00
05
03
13
02
02
0a
f8
16
05
06
2b
cd
06
f1
dc
00
f6
04
20
f9
e6
f6
ff
fe
fb
05
02
ee
05
1a
f9
06
de
02
fe
06
ff
03
00
02
fb
23
00
03
f9
ff
06
02
04
f9
00
f3
35
f7
fe
08
01
e3
0c
00
f6
02
40
09
00
00
07
08
06
ff
02
08
00
df
01
05
0b
ff
17
01
fd
06
0d
ff
07
31
fa
fe
02
fd
06
fd
f8
f8
fe
02
0e
f8
05
15
0f
2e
09
00
04
fc
21
18
fb
ef
0c
fc
0b
ca
0b
fb
06
05
fb
f8
19
f7
05
b3
1b
fe
fa
fe
08
06
07
ff
fb
01
05
03
02
06
53
bc
00
f7
e6
00
1a
06
04
ff
df
e1
f9
fb
f9
fe
04
e8
03
16
fa
05
de
01
00
f9
fe
0a
03
0b
fe
14
fd
06
fb
03
ff
07
04
ff
1d
f6
0a
00
0a
05
09
e0
04
02
e9
03
38
04
fb
05
06
02
02
01
09
01
04
e6
0b
1e
10
08
0b
ff
02
fc
10
fc
02
3a
02
fc
fd
fc
f8
fa
f0
ff
07
01
10
fc
0a
18
00
23
fb
02
02
fb
f0
24
07
fd
15
01
e1
cf
02
ff
14
07
17
fd
35
00
00
d0
0c
e0
03
04
f4
1a
00
05
06
fc
f9
ee
ff
09
52
bb
fc
00
f9
fa
28
02
d0
04
c9
f2
f8
fb
f9
fc
02
d3
04
05
03
fe
fb
02
fd
fe
fa
13
fb
19
02
1e
01
f1
0c
f8
03
f6
05
f6
17
11
ed
0a
09
ff
04
fd
14
13
f4
02
2b
07
01
08
05
fa
fa
04
fc
06
02
e6
1e
1e
11
05
ea
ff
fc
0a
06
fe
08
36
16
f8
06
03
fb
04
ef
ec
07
00
ff
02
0b
2e
fc
ff
df
fb
05
fb
e3
1f
03
08
22
05
ab
ea
0a
00
20
ff
2a
00
3a
01
05
f3
13
e2
fd
ff
fb
36
0a
00
fb
00
06
e5
fd
01
55
e1
f8
11
20
01
09
f8
bf
f9
d7
06
f9
f6
01
05
fa
b8
fc
09
fa
03
0c
06
f8
fd
f8
02
fb
15
fe
08
fe
02
18
fe
03
d7
02
f0
02
fb
fe
0d
20
00
f6
f9
11
0b
f9
04
24
fa
fb
08
02
ff
fe
03
fb
03
ec
dc
17
12
02
f6
ed
05
fe
0a
03
f1
fa
26
ff
fb
fe
ff
f7
fa
f3
ea
fc
01
ff
05
fc
1a
f8
e1
da
01
05
02
d3
01
06
10
18
00
9a
e6
11
f9
11
0d
3a
fd
16
00
05
22
13
c9
fc
05
08
2e
02
fb
fe
fd
00
ff
01
00
4f
ee
03
1c
3c
16
ed
04
cb
00
ee
13
db
ec
04
ff
f8
d8
fe
f6
01
04
0a
fd
05
07
03
f8
00
ed
fd
da
07
00
1b
02
02
bb
ff
f2
ff
ff
f0
0a
26
fd
01
f1
08
f6
f8
02
06
f8
f8
02
f8
fd
09
fa
fe
ed
f5
dc
1a
10
eb
f8
f9
ff
02
fd
f6
09
06
1a
09
00
ff
fb
06
fa
13
d9
fb
05
05
06
14
0d
16
eb
e0
0f
fb
fa
f1
c7
fd
00
0e
03
dc
ea
10
fc
13
04
46
06
eb
07
00
0d
1b
db
00
04
12
1d
03
04
02
04
fa
02
fd
ff
4b
02
fc
1c
50
05
ee
05
da
06
1b
07
d4
d2
05
ff
ff
fc
fd
07
05
fe
f6
fc
04
04
fb
fb
02
d6
05
d2
fc
08
24
fe
fe
c8
fb
fc
14
01
e6
ff
36
05
f3
f2
07
e8
02
00
0c
fc
f7
03
01
06
08
02
fd
e0
fd
cd
08
1d
e7
f0
fe
fe
06
f7
f5
0b
ff
11
02
04
03
ff
04
f8
1f
db
01
02
05
01
09
0f
02
00
e1
05
f7
fc
03
c6
fe
07
fe
fa
3c
eb
0d
05
08
00
37
fb
e1
fb
fc
13
18
da
ff
05
0b
2b
f9
fa
00
f9
f9
0b
05
05
2d
13
04
1b
3c
ff
eb
02
f1
04
37
0c
e6
f2
fe
09
f9
1d
fd
02
fb
fc
f2
fd
fd
fa
02
f8
f8
e5
04
f2
ff
0c
0d
02
05
d8
fd
ed
07
08
db
f6
21
00
f6
fc
ff
dd
f6
fc
fa
06
06
fe
fc
fe
05
f7
04
e8
0d
e1
f8
1f
ee
02
05
fd
06
02
f9
06
fe
15
f6
fc
02
fa
03
fa
0c
d5
00
fb
03
fa
f8
08
0e
f6
f2
09
03
00
1f
ce
fa
19
f7
fd
5c
e8
1a
fc
f2
11
29
02
d0
05
fa
ea
20
e1
05
03
fc
16
eb
fb
fd
ff
03
0b
02
ff
32
12
00
fb
03
1d
fa
06
04
fe
4d
f9
f9
ee
06
03
f9
15
fc
0e
f7
02
e7
fb
01
04
fa
e5
01
02
00
13
fd
19
06
02
01
d9
fc
f7
17
e3
ec
f0
21
fc
03
ee
fb
e2
f7
05
05
fe
01
fd
f8
fe
fe
07
04
f6
01
c5
fd
23
ed
06
fe
04
02
07
ec
11
fe
07
02
02
06
fc
06
05
0c
ea
f8
ff
05
ff
fe
07
10
fc
04
01
03
01
02
ec
03
0d
f8
04
55
e0
0c
06
f6
00
29
05
cc
fd
02
d0
13
eb
f9
00
06
16
e7
03
03
0b
05
0c
01
ff
19
0a
01
05
cc
15
f8
02
ed
f8
3e
0f
fb
f3
00
02
ff
10
ff
09
fd
02
e0
01
05
f9
08
f2
f7
0b
f9
21
fd
13
00
05
03
df
ff
f5
05
ed
f2
f2
ff
ff
03
f0
02
e3
f6
08
09
00
fc
fa
fe
02
01
03
fa
03
03
d7
02
24
fc
11
e8
ff
04
01
f9
02
00
08
04
03
03
04
04
fe
07
ea
05
09
07
00
01
06
02
00
0f
f2
02
01
07
00
fc
18
06
05
16
f8
12
ff
01
05
16
03
c6
00
fa
e5
1a
e5
05
04
03
08
e3
05
fc
ff
fb
00
fb
07
10
0f
fe
12
b2
02
f3
fc
fe
00
31
00
f9
f8
02
04
02
03
f5
09
fd
fd
e7
06
00
f9
09
f4
fe
11
01
28
fa
11
17
02
fd
f5
00
fb
11
f2
e7
f0
f4
08
00
03
02
e2
f0
00
06
fc
02
07
fd
03
06
03
fb
fe
f8
dd
fa
21
f7
0f
04
06
02
0a
f7
f4
08
0d
fd
fc
01
fd
fe
05
0d
f1
03
08
04
f7
fe
f4
10
05
0f
f3
01
00
05
fd
ff
1a
02
02
f3
fb
01
fd
f0
05
0f
07
d6
fd
fd
d9
1c
e0
01
04
03
05
f2
04
fd
05
fc
05
fd
07
03
ff
fe
12
bf
0a
fe
05
ff
01
19
f6
f8
ec
fb
06
03
0b
fc
05
05
fa
e0
fe
06
fb
07
01
05
06
01
37
fa
fd
09
02
03
f5
07
0e
09
f4
ee
f3
f0
04
01
16
fe
f9
ee
fb
f4
ff
fc
07
06
07
05
09
00
fc
03
dc
fd
0f
00
0c
04
02
03
06
07
f3
08
fc
fd
02
08
06
fc
ff
16
ee
02
fd
07
00
ff
f9
01
ff
0d
e6
04
06
16
09
09
21
10
00
e8
0a
06
00
f4
08
fc
04
e7
05
07
df
2e
e0
03
04
08
14
f2
fd
ff
ff
03
f5
fe
07
0a
02
04
0d
cc
09
f9
08
fe
fe
1b
ee
f0
e6
04
02
fe
0b
03
04
05
04
eb
07
01
04
fc
f8
fa
f1
fe
21
fc
f9
fe
04
01
fa
fc
09
15
ec
dd
f6
fc
fd
0b
06
ed
f6
e2
07
ff
01
ff
fe
07
07
fa
07
fb
0e
0e
ea
fd
14
05
10
01
00
05
03
15
f6
02
1d
fb
06
06
05
07
fc
07
f7
fb
01
02
0a
08
f6
13
0c
18
ee
04
06
1d
fc
fb
29
0c
05
dc
04
05
fa
e8
0c
07
07
e6
02
fc
e6
2f
e1
fd
fa
fd
0b
ee
08
fa
00
fa
03
ff
08
0e
fd
04
0d
d7
01
fa
08
03
01
02
e6
ee
e9
fa
01
fb
f9
0b
1d
fa
05
ed
fc
fd
03
03
ee
fc
ec
05
ff
ff
06
07
02
09
f7
fa
05
22
e4
ec
f6
fa
00
00
0d
fb
06
de
04
fe
01
fd
05
ff
fc
05
03
fd
fc
0b
e9
ff
0d
f8
14
12
fa
ff
01
16
f2
ff
0d
0e
fc
fc
07
fb
00
13
03
00
06
fb
fc
07
fa
0f
23
1f
f3
fe
04
0e
05
fd
26
19
02
e7
0d
fa
01
ea
1a
09
fa
e8
00
fc
e1
26
f3
07
03
0f
f5
f8
01
06
fb
09
03
03
02
05
ee
06
05
ec
f5
f2
ff
04
06
ef
eb
f1
f5
fb
05
fd
ff
0c
17
03
fe
ed
fb
fa
04
07
fa
fa
f8
07
e5
06
f2
fa
04
09
fd
ff
15
19
db
f4
f4
f3
04
fb
1b
fd
01
f7
fb
f2
02
ff
02
06
04
08
09
06
ff
09
f9
0d
0b
fd
1c
18
00
01
04
03
fe
fb
09
26
fe
fb
04
02
05
15
14
07
fc
ff
02
07
fb
01
12
12
ff
03
fe
06
03
01
14
15
fc
f2
0a
fd
05
f0
0d
06
fc
f5
fe
02
ef
12
f8
fe
09
12
f8
02
06
02
01
07
f5
00
fa
02
ff
00
04
f6
fd
f1
03
0d
00
f8
fa
f4
fe
03
03
08
ff
09
0f
fd
fb
f8
ff
04
04
fa
f2
06
06
fd
fb
fc
f2
08
07
fd
fb
03
02
08
ea
00
f9
fe
08
05
18
05
0e
00
ff
02
08
02
02
01
01
02
fe
03
ff
05
00
0e
06
04
0b
0e
00
07
ff
f1
fd
04
03
17
fe
ff
01
01
ff
ff
fe
08
fd
01
02
03
ff
01
0d
04
fc
03
04
03
00
fc
0f
fc
06
fe
03
fb
04
05
07
fd
05
fd
fe
fc
fb
ff
fd
ff
04
fe
06
06
08
07
04
08
fd
08
05
fc
07
07
00
09
03
fb
07
fd
04
fb
f8
fe
05
00
03
fe
01
05
02
01
01
fb
fd
fa
04
05
fc
ff
f9
01
f9
06
f8
07
01
07
fd
07
ff
0c
fa
03
05
fe
fe
07
01
03
01
fb
01
fc
04
02
06
01
07
01
05
fa
00
04
fc
02
06
fc
04
0c
01
fa
fb
f9
fb
06
08
0a
03
03
03
05
00
03
fd
ff
fc
03
06
04
08
03
07
f5
03
09
fc
08
00
06
0a
00
06
07
fe
ff
07
fe
06
02
07
07
00
07
fd
fa
fe
08
06
fd
ff
05
04
07
fb
07
ff
fe
fb
f9
02
01
07
08
ff
05
fd
fc
06
04
00
fe
fe
fd
06
05
01
fd
fa
fe
ff
00
07
07
fd
ff
04
06
07
05
01
01
fa
fb
01
02
06
05
03
fd
fd
f7
07
fb
01
fc
fe
07
04
06
fb
03
fb
04
fc
04
09
fb
09
00
04
f8
fe
01
03
fc
f8
09
00
fc
fc
06
00
00
07
fd
fd
05
03
ff
05
02
02
fa
fc
0a
01
00
fb
fb
09
f8
00
fd
01
fd
00
05
03
06
fb
fe
04
fa
fd
fe
fe
08
fd
fd
00
ff
fd
04
fd
06
04
01
02
f9
ff
05
fd
ff
04
fc
08
f5
ff
fe
05
00
fb
05
04
ff
fb
fb
06
00
fe
00
02
ff
08
fd
fc
09
fb
04
fd
04
02
08
01
06
07
fe
05
08
05
fd
06
fc
ff
08
fa
fd
02
03
07
09
04
fb
04
07
08
04
08
02
08
fa
07
02
02
08
fd
07
fd
03
05
fd
ff
f6
fc
04
05
fb
01
05
fa
fd
01
04
fb
fc
08
00
02
f9
f8
09
fa
fe
fd
03
03
f6
02
fc
fd
08
01
05
07
fd
00
07
02
03
05
fa
07
fc
09
05
00
0a
01
04
07
fa
05
06
fe
fb
04
f9
ff
fd
fd
08
08
fc
fa
f7
07
fc
fe
ff
f9
00
06
fc
fc
f8
fb
04
0a
08
08
06
0a
06
03
fb
03
01
08
00
ff
03
f9
05
07
08
03
ff
fa
00
01
01
fd
ff
ff
fc
fc
f5
fd
01
02
fc
fe
01
03
f9
fd
06
ff
06
fe
fe
fd
07
07
07
ff
f7
06
ff
fd
fa
ff
03
05
03
04
fe
fb
02
fa
09
06
08
fc
fc
ff
fb
fa
09
fd
04
09
f5
08
f6
02
f9
02
01
fb
00
07
fe
0d
fb
05
09
07
ff
03
fd
02
02
08
02
fa
fa
ff
02
02
01
06
fa
08
00
03
07
07
fc
ff
08
fd
03
02
02
fb
03
f9
01
02
04
01
fd
fc
04
03
02
04
fe
08
03
f9
00
07
0d
ff
03
01
fc
f7
fd
09
fa
06
07
03
01
04
04
fb
fd
03
01
02
00
07
01
04
09
05
06
06
fa
fe
03
05
02
fa
fd
01
00
06
00
fa
fc
fb
01
06
f8
f7
07
08
fd
09
06
ff
05
fc
03
fe
07
02
00
02
05
fd
04
fd
00
03
fc
fd
fb
f6
f6
fb
07
ff
ff
0b
07
03
03
fd
06
04
04
fe
fe
fe
fb
fe
03
07
fb
02
01
01
00
01
fc
04
f7
fa
07
01
07
fb
fb
04
02
0a
07
03
07
0d
03
05
09
09
02
fe
04
0e
08
00
04
02
ff
f6
06
fd
0c
07
01
fd
08
04
fd
00
08
04
fb
02
fa
02
04
fb
00
04
03
f8
f3
03
05
ff
00
02
fd
00
f6
fb
0c
06
08
fc
05
07
03
04
01
fe
f4
0c
00
07
f5
f9
00
fd
f9
01
01
03
fe
05
02
fe
02
02
05
ff
f8
fb
fa
fb
fe
fb
f0
f7
f8
f6
fb
f7
03
fe
05
10
fe
fd
01
04
01
05
03
fd
02
ff
fe
06
11
06
fd
07
05
02
08
04
01
0a
f7
fb
fd
fe
fd
fd
08
08
12
04
ff
f6
09
14
fd
fd
00
08
f2
01
0b
04
00
ff
ff
00
09
f0
07
07
0e
05
ff
02
02
09
08
ec
08
08
ff
12
00
04
fc
03
05
01
fa
03
ee
ff
06
07
03
f4
fa
f8
ef
fd
07
02
fb
05
02
fa
04
fe
08
0b
f7
0e
f9
08
07
f9
fd
01
fb
00
01
04
09
01
f1
04
ff
06
04
fd
f8
fd
fd
01
fd
02
fc
fd
04
f1
09
04
09
06
06
fa
03
02
fc
03
0a
08
0f
07
f1
ed
f8
00
0a
02
fd
f7
02
00
fd
05
f7
00
02
01
07
03
02
fc
fd
05
1e
fa
02
f1
0b
06
03
00
07
09
f9
fa
12
06
08
fe
ff
03
fd
f0
05
04
0d
08
fd
fa
06
01
fa
de
08
fb
05
0e
04
fe
fe
00
06
03
fd
04
f1
f5
fd
02
08
ef
f0
ea
ea
06
0e
00
fd
fb
03
05
fd
02
ff
09
03
02
f9
1f
07
f6
f9
fc
fe
03
ee
f7
fc
01
ed
01
fc
06
00
ff
0c
fc
fe
05
08
fb
f6
ff
02
ef
01
05
fe
fd
fc
f7
fa
00
e9
06
03
11
03
05
f4
f3
f4
fa
fd
08
05
e4
01
02
00
01
ff
fe
01
fc
05
f9
00
fb
fa
fa
2a
f8
fa
ef
fc
16
f8
05
04
05
f6
e7
12
fd
04
06
fe
04
fe
ff
fc
fc
06
03
ff
07
f8
0d
01
d9
fe
fd
02
09
fb
06
05
ea
05
04
fb
fb
09
f1
fb
09
08
fb
f6
e8
de
fb
0d
fc
09
01
04
fb
fc
fb
04
10
01
f4
f7
12
09
fa
f3
00
fc
fd
f4
06
fc
fc
e3
00
03
04
05
fc
12
fb
05
01
06
fc
ff
0e
f5
ea
fe
06
ff
03
f2
fb
fb
01
f0
fe
09
16
fc
fc
f1
ec
ea
00
04
ff
03
e2
03
05
07
fa
0f
01
09
07
04
fd
fd
fa
01
ff
31
ee
fa
f3
ef
09
f3
ff
fe
00
f2
db
07
ff
02
fb
03
03
07
f6
fb
fe
05
06
08
fa
00
02
03
cb
fd
04
fa
12
fc
05
ff
ea
00
05
09
f3
1b
f1
01
06
fd
ff
e9
e6
e7
f9
10
03
ff
05
ff
00
02
fb
03
ff
03
f2
fd
22
10
f2
ea
07
07
08
f7
0c
fa
05
f3
03
06
fb
05
04
15
09
fb
01
02
01
09
07
ef
db
00
01
ff
06
01
e6
03
fa
f1
01
16
20
fc
fb
ef
f5
ed
02
02
fa
fb
e5
06
0b
02
fe
17
0e
16
fc
fd
05
08
f5
09
01
2c
f3
ff
ec
db
00
e2
fa
